t h
a n
i n
e r
t i
e d</w>
e n
a r
o f</w>
r e
o n
o r
i n</w>
o n</w>
s t
i t
a l
e r</w>
r o
e s</w>
a t
t o</w>
a s</w>
o u
a l</w>
i c
a n</w>
i s
i s</w>
a c
a ti
e c
e l
o r</w>
o m
s i
u r
o l
e s
i l
a s
a t</w>
d i
a m
l y</w>
c h
u n
r i
e m
e n</w>
w h
l i
c on
s u
d e
p l
a d
u s
t s</w>
w as</w>
v e</w>
o w
o s
i r
a g
b y</w>
p ro
b e
v er
u l
c e</w>
f or</w>
t r
a b
c om
w it
o p
l e
th at</w>
a p
e x
h a
t er
s e
ti on</w>
' s</w>
n e
t h</w>
f or
l e</w>
h i
c i
s p
m a
c l
a r</w>
f ro
v i
1 9
c h</w>
i t</w>
p ar
g h
m en
t ed</w>
n o
p re
p er
d u
q u
b u
m an
t ur
d in
th er</w>
c en
m e
d s</w>
o c
f f
2 0
r a
w er
al ly</w>
e i
t er</w>
i m
e v
c ou
p e
w or
m o
t in
l an
o o
b e</w>
p or
d er
i c</w>
s t</w>
s h
d ed</w>
ti on
e st
t a
s o</w>
l a
st at
d e</w>
d en
l d</w>
t w
th er
g i
t u
c o
th is</w>
g h</w>
m in
g re
p u
a f
n i
e ar
p h
r u
m ar
g e</w>
h is</w>
g u
r an
p o
i es</w>
b o
o ther</w>
g en
p r
al so</w>
a y</w>
s o
u m
h as</w>
c or
a u
k in
th ei
g o
f i
c it
s er
m os
d er</w>
l o
t o
t en
e y</w>
0 0</w>
f e
l ed</w>
d is
s om
n ati
l in
m e</w>
f ir
s en
v el
b er</w>
m or
s ou
e a
u s</w>
on al</w>
p ol
v er</w>
a y
m il
t y</w>
in cl
ti es</w>
c ol
m i
w i
s y
b er
h e</w>
l at
b ec
k e</w>
su ch</w>
s in
in ter
b l
c re
g ro
l ar
e t</w>
t ro
m on
g r
t ri
s ec
r ic
a i
th ey</w>
n or
ab le</w>
i a</w>
v ed</w>
t e
s e</w>
i st
e m</w>
s ti
th ou
k s</w>
f ou
r en
f l
c ar
c es</w>
1 8
v in
p os
c ul
d ec
a in
m u
d ur
c al
s ch
en ce</w>
i an</w>
e p
g s</w>
d o
p op
g in
c a
f in
m at
t e</w>
l ow
e u
i z
r it
c ed</w>
e en</w>
an ce</w>
i al</w>
e l</w>
in to</w>
p ri
th es
u p</w>
a v
c an</w>
m an</w>
o ff
n d</w>
m s</w>
w ar
s el
th an</w>
s it
ti me</w>
k n
o g
c es
l is
g er
c ri
p en
u p
v ic
wor ld</w>
th ro
p an
f ac
t ly</w>
ou ld</w>
o ver</w>
er ic
tw een</w>
be tween</w>
nati onal</w>
d es
a d</w>
s hi
h ed</w>
ti ve</w>
t em
t or
n in
j o
r is
b as
am eric
on ly</w>
v en
i on</w>
n ed</w>
i ver
pro du
de vel
h e
en ts</w>
l ati
s ol
c ap
u e</w>
n um
g e
u m</w>
l on
t en</w>
i ti
st ru
t re
v es</w>
un iver
b ri
in di
o pl
w ar</w>
r on
m al
f ic
ol og
v ar
at ur
a in</w>
c al</w>
t ec
h ou
l oc
b i
0 00</w>
m ad
s ur
b el
d ic
r at
f er
n men
c tion</w>
y p
v is
p ow
w el
w in
c ur
r y</w>
h ow
o f
w ould</w>
e as
pe opl
ver nmen
go vernmen
e d
m un
w il
h o
n am
b ro
h in
di ff
e g
f re
f u
r ed</w>
b li
v ol
d at
d ay</w>
y e
t an
v al
h el
f ol
m er
h ar
t al</w>
s s</w>
c an
u din
f t</w>
o re
m us
u t
m em
s es</w>
b ac
th re
b le</w>
y ear
a ir
d ar
incl udin
l es</w>
un der</w>
pre sen
m is
w e
g an
a di
c ep
c as
u d
re gi
m it
j ec
con tin
b an
li gh
pu bli
d el
a st
i o
b il
k ed</w>
g es
st em</w>
e w
h an
f il
1 0</w>
h er
c u
h om
c er
n o</w>
t ati
s am
c am
m ed</w>
u gh</w>
t t
p er</w>
sy stem</w>
t el
s on</w>
0 s</w>
si den
s a
r in
a si
b al
thro ugh</w>
lan gu
g er</w>
ar ch
t ow
w es
hi gh
pl ay
s h</w>
s ed</w>
t le</w>
m es</w>
p as
r ati
h er</w>
d em
or gan
o b
t ar
on om
g n</w>
w ay</w>
in ed</w>
in es
i an
re sp
f ran
b or
i e
d ow
com mun
e a</w>
s ci
b ur
con tro
d om
h ol
l s</w>
a il
f am
r ac
hi gh</w>
p s</w>
p ir
st ri
l it
a us
re li
in cre
re cor
p at
i ties</w>
u gh
l es
per io
d d
e ff
d re
th em</w>
ti sh</w>
g ar
s ic
s on
pol iti
al is
p i
re su
a m</w>
t on</w>
de pen
m ou
h u
w est
ul ar</w>
j or</w>
ma jor</w>
g ni
er en
t ac
c s</w>
1 7
diff eren
ab lis
g n
est ablis
c el
b at
er al</w>
e ti
s an
w at
r us
mo der
li ke</w>
u de</w>
g an</w>
h y
d o</w>
an ts</w>
com pan
p por
su ppor
t or</w>
bri tish</w>
or it
al thou
min ist
e k</w>
b ar
ar ea</w>
ec onom
v en</w>
i d</w>
r ul
ou nd</w>
re lati
w rit
si ve</w>
g am
j u
g ed</w>
t yp
am pl
r e</w>
ec ted</w>
h n
si de</w>
f un
k e
v em
v o
bec aus
th en</w>
n a</w>
ex ampl
ar ly</w>
1 2</w>
m er</w>
pu bl
is lan
e ded</w>
a ff
c ro
g es</w>
in fl
ag ain
f ren
im por
m y</w>
i gin
or igin
e ac
re ma
pro vi
g l
y in
em pir
n tr
cou ntr
th in</w>
b re
incl ude</w>
a k
s mal
i ou
s .</w>
m p
d es</w>
tr adi
h al
ser vic
h n</w>
th os
g ran
lar ges
i l</w>
m ac
it al</w>
i en
si der
f e</w>
m ati
er ati
con sider
cou ld</w>
f oo
a z
op men
wi thin</w>
1 1</w>
devel opmen
v ir
ri gh
ro pe
eu rope
pre siden
un der
1 5</w>
ar ound</w>
h ea
i f</w>
l u
m ul
jo hn</w>
h um
ac cor
l en
v il
p al
in st
u al</w>
er at
e as</w>
c t</w>
ar ac
be gan</w>
b s</w>
ti al</w>
p p
c y</w>
inter national</w>
gen eral</w>
m on</w>
ch arac
p ur
ur ch</w>
fou nd</w>
ch urch</w>
c ces
su cces
u .
p e</w>
be for
e du
c ei
5 0</w>
in du
gro up</w>
st ati
l l</w>
m as
af ric
o ver
1 4</w>
1 3</w>
tec hn
c at
ic ati
b oo
t est
p ec
re qu
l a</w>
b ou
il din
n atur
s k
bu ildin
ti cul
u tion</w>
i ally</w>
d y</w>
ch ris
a th
v e
s em
n ec
i i</w>
ap pe
re le
n on</w>
g y</w>
f ic</w>
ic ally</w>
an ci
er ed</w>
c op
ar my</w>
2 0</w>
c ati
1 6
f es
ne eded</w>
f a
g ra
v an
th in
re st
re ac
pro ces
d on</w>
li fe</w>
com mon</w>
ro pe</w>
g lis
an other</w>
u re
en glis
e qu
at el
as so
l os
i d
par ticul
c in
gre ek</w>
n tri
cou ntri
eu rope</w>
j ew
in sti
ar ch</w>
ch ines
p ac
n es
l ab
f ur
e f
v ati
w al
re fer
in depen
b ir
h un
si tion</w>
b c</w>
gro up
sti ll</w>
er gy</w>
f ore
p it
ex per
j ap
ec ies</w>
for med</w>
ar eas</w>
is hed</w>
c e
sp ecies</w>
k er
edu cati
c le
an dar
an ti
st andar
con sti
ro man</w>
g a
s al
d ro
par ty</w>
t ex
v al</w>
t es</w>
re por
l as
g le</w>
s or
re presen
si gni
th em
e ver
ec tion</w>
m ag
t al
ex ten
th ir
en ergy</w>
re cei
ag ue</w>
f ul
for ces</w>
g ned</w>
v it
v el</w>
u su
y n
t a</w>
si mil
or der</w>
at tac
o s</w>
z e</w>
ec tr
m ic
f al
de fin
k en</w>
i den
r t</w>
b us
n s</w>
w s</w>
o ther
ti cal</w>
j un
al low
u ded</w>
b y
st em
re se
i de
un ion</w>
ti mat
se qu
cou rt</w>
for mati
si ble</w>
t ou
l am
di tion</w>
o w</w>
di tion
d ge</w>
k il
y ou
var iou
s la
l er</w>
si gned</w>
e th
n er</w>
b r
op erati
3 0</w>
n t</w>
g al</w>
y or
u den
j us
ti mes</w>
st uden
o ol
po sition</w>
n er
v at
d oc
n u
d on
a im
le ague</w>
m en</w>
b in
u di
p on
c k</w>
p ic
g ati
0 9</w>
lon don</w>
c o</w>
for ms</w>
4 0</w>
b ra
m el
0 8</w>
r al
t on
st udi
or ies</w>
em ents</w>
1 5
ter rit
i on
it al
b rit
t oo
si gn
e w</w>
sy stem
c y
r am
mi dd
b ed</w>
2 5</w>
s ly</w>
b en
a vi
sch ool
cen ter</w>
t ag
er ally</w>
p in
e t
al th</w>
0 7</w>
w ay
st ric
con ta
z ed</w>
is su
u ed</w>
in tro
in ci
st rat
re ad
re vol
el ectr
an ge</w>
re co
vi et</w>
wi thou
re du
i al
t men
re as
so viet</w>
con stru
k et</w>
d ay
ad minist
st er</w>
op erat
c ir
i gn</w>
j an
it ec
w om
n e</w>
w a
vi du
g el
en tly</w>
d ri
d am
ti an</w>
indi vidu
t un
se par
c tion
pop ular</w>
c is
arch itec
in iti
g do
p ai
g al
ti cs</w>
kin gdo
d an
a ver
20 10</w>
g lan
in ten
d ra
os op
il osop
ph ilosop
g ul
for mer</w>
y on
st ud
d a</w>
o m</w>
h en
0 6</w>
com pe
1 6</w>
ex pan
l t</w>
w oo
ri ver</w>
ne ar</w>
incl uded</w>
e ty</w>
ter min
st ron
h is
ch ange</w>
con tr
le ge</w>
is ra
col lege</w>
contin ued</w>
s cri
ex ist
t able</w>
pec ially</w>
es pecially</w>
per cen
g at
sin gle</w>
s ar
se tt
in in
g o</w>
com pu
y al</w>
a war
x im
is ion</w>
cap ital</w>
en glan
thro ugh
in vol
s si
gen erally</w>
u es</w>
i b
c ra
y sic
sp ea
s ai
s ac
ph ysic
mo vem
re tur
p tem
se ptem
il dre
ch ildre
6 0</w>
li mit
ti ci
pro tec
em pl
ci ties</w>
an is
re cen
re pl
pro vin
l ec
i re
con nec
h os
wor ks</w>
n ou
k en
h y</w>
1 2
u ar
on shi
n ci
h on
con cer
vi ew</w>
s w
i gh
i fic</w>
1 8</w>
resu lt</w>
h or
en ces</w>
bo dy</w>
n ta
me dic
le vel</w>
t bal
to tal</w>
g ol
re publi
b es
y s</w>
cou nci
z en
cl aim
ou sly</w>
ma ke</w>
i ed</w>
e an</w>
y ed</w>
20 08</w>
ic ial</w>
de par
c tur
off icial</w>
n as
ser ved</w>
f ar
ec ts</w>
0 5</w>
o gr
an im
th us</w>
ro yal</w>
com par
ar gu
20 13</w>
som eti
produ ction</w>
a k</w>
com man
ac hi
1 .
r ap
in gs</w>
c li
al li
n ded</w>
com mon
b is
s qu
mou nta
r ag
con su
at tem
n al</w>
en ter
con cep
ol ic</w>
w n</w>
m y
av ail
1 4
1 00</w>
g in</w>
st ance</w>
p t</w>
l er
in at
di stric
ac tion</w>
1 3
20 09</w>
stru ctur
li ber
jan uar
g oo
e at
com mer
20 11</w>
o k
m al</w>
pl ay</w>
ci vi
at ure
ti st
oc to
re lat
be gin
t ea
st ral
in ati
em per
e p</w>
t i</w>
in stru
e or
au stral
th eor
vic tor
p ap
ar ds</w>
ro ss</w>
ad van
an es
to day</w>
f en
ti ce</w>
j orit
ma jorit
gi ven</w>
ta ke</w>
si gn</w>
ro le</w>
ti be
h es</w>
b ran
i um</w>
b an</w>
bu dd
th or
n ex
u ence</w>
k es</w>
re siden
l ac
20 12</w>
20 07</w>
m a</w>
r un
n ic
ha vin
ec tive</w>
b ru
8 0</w>
pro fes
k i
b it
m ex
infl uence</w>
oc cur
o t
1 0
ma kin
9 0</w>
le ft</w>
ti vel
t ab
di vis
d it
ac ross</w>
d ol
ad dition</w>
y le</w>
s sed</w>
ro un
r a</w>
pro gr
n ced</w>
i tion</w>
f ri
re gul
re gar
h ab
ad op
l or
em ber</w>
dec ember</w>
con gre
es timat
al iz
g us
sh ould</w>
an nou
o tt
f el
ter ms</w>
20 14</w>
an al
su per
o p</w>
g ly</w>
w th</w>
u te</w>
u en
it sel
h il
c le</w>
t ter</w>
f ron
re et</w>
st reet</w>
ci ety</w>
so ciety</w>
b jec
su bjec
pro jec
l ic
por tu
gro wth</w>
1 7</w>
jap anes
h am
ser vati
s er</w>
h oo
c ted</w>
al bu
20 06</w>
su ff
e vi
no vem
c us
pr inci
e ts</w>
p li
ar men
r as
foo tbal
b on
pos sible</w>
el ev
ac cep
au gus
t an</w>
in ta
u b</w>
di ver
de fen
t es
k ey</w>
w e</w>
fore ign</w>
c ally</w>
sp anis
pri vat
infl uen
h an</w>
con ver
7 0</w>
p ed</w>
ex ual</w>
com mit
c up
b om
ma inta
at or</w>
ic an</w>
i p
h ic
mo ved</w>
g en</w>
at ten
u men
pro test
o t</w>
g et</w>
mi gr
f ar</w>
d yn
sh ow</w>
s al</w>
mar ket</w>
fe atur
r s</w>
on men
fou nded</w>
f ail
z in
g is
cl ub</w>
al mos
j ur
h ear
fin anci
s an</w>
r ces</w>
sou rces</w>
as sic
pl icati
en tu
de fe
ac cou
o x
cl assic
al lo
publ ished</w>
le gal</w>
in tel
ex cep
g lo
st yle</w>
in formati
n ap
h i</w>
0 4</w>
ro ck</w>
a i</w>
pre ssi
o ve</w>
he alth</w>
j ud
tr ain
sel ves</w>
en vir
de vic
ch em
u at
st ry</w>
st ro
re si
du ced</w>
a b</w>
s co
re ad</w>
oc cup
w on</w>
y o
con tri
b es</w>
ati ve</w>
pro mo
p tion</w>
c a</w>
re ct</w>
ac ces
a h</w>
them selves</w>
b al</w>
t wor
s or</w>
ne igh
qu een</w>
pro ved</w>
n or</w>
m ec
2 4</w>
0 .
ro man
intro duced</w>
chris tian</w>
li ve</w>
k el
k a</w>
c ru
b ul
var ie
re st</w>
com men
c os
be yon
an ges</w>
o gi
n av
2 .
in es</w>
des pit
d ou
f oc
ow le
ch anges</w>
v est
pro xim
e x</w>
an in
n d
kn owle
g g
indu stry</w>
an din
v es
k er</w>
p un
m es
l y
v oc
en gin
ap po
tur ies</w>
ec tri
cen turies</w>
or at
on ce</w>
ti vit
el ectri
con ven
st ly</w>
k an
ic ien
con du
an sp
tr ansp
pro per
ev ision</w>
tel evision</w>
di vi
u fac
man ufac
in ted</w>
f er</w>
en ci
vi ew
ne twor
er ial</w>
bro ugh
au thor
s es
relati onshi
on es</w>
k ar
g ton</w>
ev entu
air cra
m i</w>
j am
i fic
ac ad
st ag
in dic
fe bru
de signed</w>
2 1</w>
bel ie
th olic</w>
r ce</w>
sou rce</w>
r ar
k ore
ca tholic</w>
pro pos
w en
u tion
pro gra
5 00</w>
ro me</w>
pl ants</w>
n on
ev ents</w>
ch ie
ar ts</w>
p el
de gre
incl ud
f is
en cy</w>
s un
g th</w>
f lo
n ty</w>
th eat
e ks</w>
de sign</w>
20 15</w>
20 05</w>
to ge
stat us</w>
t om
f y</w>
f av
1 9</w>
i or</w>
b ly</w>
typ ically</w>
si ties</w>
h a</w>
. .
ti fic</w>
ro ad</w>
en tific</w>
sci entific</w>
u k</w>
cou nty</w>
cri bed</w>
t side</w>
f le
ou tside</w>
st andin
le gis
c tly</w>
d en</w>
2 2</w>
w an
in te
f us
ag ain</w>
4 5</w>
or ge</w>
ar ted</w>
3 .
m ol
e er
ab ove</w>
ad dition
t ch</w>
re ta
al ter
des cribed</w>
per son</w>
ac tive</w>
h men
en tal</w>
u si
t ol
re ctly</w>
p hi
0 1</w>
th orit
li vin
f tw
com pos
au thorit
i ev
ar ter
w in</w>
s ain
con fl
j ac
ge orge</w>
ap proxim
st arted</w>
on ic</w>
la ws</w>
g .</w>
f em
wi del
univer sities</w>
me anin
an tin
0 3</w>
y al
cam pai
g or
7 5</w>
tu te</w>
per son
for ced</w>
bel iev
g ur
de termin
wor kin
ta ken</w>
pre ven
an ces</w>
wh os
l ou
d ance</w>
x ed</w>
e .
ec ial</w>
sp ecial</w>
ti fi
s fu
p ra
p il
w ea
w ro
ec tivel
b sequ
su bsequ
c est
per ial</w>
im perial</w>
b it</w>
ac tu
a c</w>
e ds</w>
0 2</w>
thou san
mo stly</w>
is lam
d u</w>
h ap
er ou
h op
n ar
ic ul
su pp
m it</w>
w as
en cou
e ther</w>
e is
2 3</w>
o ts</w>
el ection</w>
ur ch
succes sfu
o do
n ic</w>
m mer</w>
for man
p ati
k m</w>
diff icul
b asi
ti ty</w>
si onal</w>
li am</w>
j in
fou nd
con qu
ti st</w>
po ten
nas ser</w>
ec ific</w>
sp ecific</w>
a is
wil liam</w>
ti fic
n g</w>
hy dro
h ei
g ain
d wi
ch urch
c .</w>
per forman
p ag
ne ver</w>
lar gel
ap plicati
ou gh</w>
du tch</w>
win dow
re fl
or ic
ne arly</w>
as sem
sou nd</w>
s wit
s exual</w>
lar ger</w>
l o</w>
en ded</w>
par tici
ol ogi
st oric
o il</w>
l em
hi storic
d al
ar ab
y u
u tive</w>
t v</w>
philosop hy</w>
o d</w>
n ual</w>
de stro
d ru
r .</w>
fac tor
s cal
n an
b ron
an nual</w>
an cest
2 7</w>
wh ether</w>
si ze</w>
or der
la hom
i ded</w>
ex cl
e on</w>
3 5</w>
ok lahom
d y
z er
u ati
pre ss</w>
v asi
pl ex</w>
su pre
r ad
b ab
mat erial</w>
in ly</w>
i de</w>
d or
su mmer</w>
op pos
8 9</w>
ul tur
le vel
ec tion
ar ri
st om
at tr
6 5</w>
re publ
con tem
b le
9 1</w>
2 8</w>
p ul
in ven
el ected</w>
ch est
si mp
gen eti
eth nic</w>
com mis
ti vi
9 5</w>
v y</w>
ur ban</w>
s cen
com plex</w>
20 04</w>
l oo
com pon
be ha
se ven</w>
i men
din gs</w>
univer sal</w>
th odo
s ati
or thodo
e for
ti tle</w>
s ha
el ements</w>
di stri
ci vil
b ol
9 8</w>
j ou
g ad
i ds</w>
g ag
f an
b a
ther efor
si tion
in vasi
con ten
ar ab</w>
an ten
9 9</w>
3 1</w>
num erou
dis eas
su gg
smal ler</w>
c ts</w>
e ed</w>
ar ies</w>
al ex
20 00</w>
k ly</w>
b a</w>
an tly</w>
so ftw
fun ction
di rectly</w>
s onal</w>
pro bl
pl ain
per sonal</w>
on ia</w>
con dition
au stri
ac tice</w>
pr actice</w>
a way</w>
or ts</w>
in sec
v on</w>
c r
di rect</w>
or ati
in cor
i ati
g men
commun icati
c um
ag ric
p ou
doc umen
con servati
v ac
th eas
s af
on se</w>
an ti</w>
al le
2 6</w>
sp eed</w>
y an
w is
g a</w>
commun ities</w>
col lec
ac qu
ver nor</w>
go vernor</w>
e tr
e b
2 9</w>
resp onse</w>
pro min
or ien
lon ger</w>
ol es
fe ature
8 0s</w>
7 8</w>
g ital</w>
f as
di gital</w>
ar it
t ance</w>
s mit
or din
glo bal</w>
e .</w>
ar tist
a e
n ds</w>
insti tute</w>
es sar
nec essar
4 8</w>
ti re</w>
shi ps</w>
n om
l ted</w>
in com
at lan
am pi
9 2</w>
you ng</w>
l ag
ch ampi
an ged</w>
ch anged</w>
ac hin
re em
oc rati
ma inly</w>
li br
i ence</w>
ac tivi
ti zen
ou nt</w>
ol eon</w>
nap oleon</w>
qu arter
li kel
l tin
8 8</w>
i ii</w>
ci tizen
sp read</w>
p ain
m sel
hi msel
am ount</w>
vi ously</w>
s ag
n at
me tro
ex tre
er atur
lit eratur
c up</w>
is ms</w>
v a</w>
ren tly</w>
in su
cur rently</w>
ag reem
t les</w>
i for
6 4</w>
5 5</w>
t op
9 7</w>
4 .
y s
t ter
per atur
tem peratur
p au
gen erati
con cl
z on
y er</w>
sur roun
m ur
l led</w>
g ular</w>
exper imen
ar les</w>
ap pli
y mp
tow ards</w>
sp orts</w>
pre ssed</w>
n ter
in vest
e te</w>
ch arles</w>
7 6</w>
v ad
sp rin
p sy
dis cus
d i</w>
ac ts</w>
8 5</w>
y a</w>
v as
ter ia</w>
t at
sp ain</w>
it an</w>
es sen
z e
en tire</w>
ti tion</w>
t tin
ic ially</w>
off icially</w>
con sol
can adi
il ities</w>
i g
for min
bac teria</w>
ad ded</w>
4 9</w>
3 2</w>
u n</w>
re ly</w>
ow ned</w>
iden tity</w>
bl ue</w>
3 9</w>
u ally</w>
j i
hou ses</w>
eff icien
ad uat
gr aduat
9 0s</w>
re ser
par ties</w>
exper ience</w>
s ay
re mo
in gly</w>
d na</w>
9 6</w>
requ ire
le ad</w>
ad oles
ac tivit
pre viously</w>
c er</w>
al way
r o</w>
profes sional</w>
on na</w>
n a
m ally</w>
de sign
mar ke
4 4</w>
th om
r al</w>
mad onna</w>
l ap
hin gton</w>
was hington</w>
c tor</w>
si bil
s a</w>
m ir
con fer
com bin
c tive</w>
resu ltin
re al</w>
min orit
sol ution</w>
oc ca
i fi
f ence</w>
ex pen
b on</w>
7 0s</w>
resu lted</w>
it es</w>
g im
e din
5 .
w ei
p ts</w>
cu stom
c tu
ap hi
9 4</w>
re jec
j es
hea vy</w>
c ris
st ren
el ds</w>
ec utive</w>
ex ecutive</w>
e tin
e er</w>
cel eb
a u</w>
or ial</w>
on ally</w>
engin eer
be tter</w>
an thro
ac tion
d ly</w>
5 6</w>
p ted</w>
on ian</w>
j os
hou rs</w>
dom inat
bel ow</w>
ar ter</w>
v a
re tar
produ cts</w>
ol ymp
e ted</w>
con cen
ad ul
20 03</w>
sen se</w>
k is
is ati
i p</w>
de fence</w>
t s
s is
in ts</w>
y et</w>
g as</w>
3 8</w>
th ic</w>
re pe
re al
ran ked</w>
c ti
as su
6 0s</w>
4 1</w>
y mou
n tow
g ges
f ligh
dow ntow
6 .
pro gre
n el
f o
c em
a h
7 1</w>
we alth</w>
mar ked</w>
l in</w>
i o</w>
g y
e ph
s lo
in gu
h ni
gro win
ex hi
al read
ac ted</w>
il ies</w>
f ram
ad ap
3 3</w>
pre mi
h us
gen erat
e ve</w>
co tt
bri dge</w>
6 6</w>
ti pl
th od</w>
ne ws</w>
me thod</w>
el es
b ap
tec hni
sec retar
ro ber
n ts</w>
mul tipl
m pl
a ur
pol itan</w>
pl ete</w>
pac ific</w>
o y
no table</w>
f a</w>
n '
metro politan</w>
l dwi
wor ldwi
for mal</w>
fam ilies</w>
ar tin
3 6</w>
s sur
pre ssur
ol des
o l</w>
ma them
in ves
i gin</w>
or igin</w>
i .
b rin
7 9</w>
6 8</w>
ti cis
t ap
re ver
dem ocrati
4 2</w>
t as
st al
per man
o ds</w>
in sp
8 2</w>
w rest
st ra
si mpl
on ial</w>
for mer
d ail
appo inted</w>
an gel
st artin
so ft</w>
re fus
g os
f ec
19 80s</w>
ti ally</w>
r ne</w>
po sition
e f</w>
p a
o to
li ved</w>
6 1</w>
r se</w>
or ic</w>
on ies</w>
7 2</w>
ti cle</w>
o ken</w>
sp oken</w>
en tr
d avi
b st
ap hy</w>
si tive</w>
n es</w>
in hab
i r</w>
di ev
me diev
de tro
8 6</w>
7 .
p al</w>
establis hmen
en ds</w>
7 3</w>
20 01</w>
ul timat
bou rne</w>
a vel
7 4</w>
3 00</w>
tr ue</w>
pl eted</w>
j er
cou rse</w>
be hin
ar med</w>
9 3</w>
wi des
ti val</w>
a ke</w>
5 4</w>
u r</w>
i el
fi elds</w>
fes tival</w>
defin ition</w>
c k
3 7</w>
th wes
ric har
q in
mi gran
m at</w>
h at
at om
w sp
su bst
o ti
ne wsp
me etin
an gl
19 70s</w>
u al
ta kin
t lan
st oric</w>
hi storic</w>
al len
ti ces</w>
on strat
g em
dem onstrat
dec ided</w>
19 90s</w>
ex pos
6 3</w>
wh om</w>
iden tifi
3 4</w>
t t</w>
o yed</w>
mel bourne</w>
ic ial
off icial
g un
5 8</w>
u k
th am
te achin
qu ently</w>
i ved</w>
en how
eis enhow
d af
com plete</w>
8 4</w>
4 6</w>
4 00</w>
1 st</w>
tibe tan</w>
st adi
r th</w>
no te</w>
me tal</w>
in ce</w>
fre quently</w>
en ue</w>
e y
av enue</w>
a ic</w>
20 02</w>
pr ince</w>
me dit
i e</w>
ha ven</w>
g ri
er ial
eff ective</w>
contro lled</w>
c ab
ad quarter
he adquarter
8 7</w>
5 3</w>
sit uati
l ts</w>
im pac
ic kly</w>
h it
en din
d .</w>
7 7</w>
tr avel
th ods</w>
re gular</w>
me thods</w>
in no
in ct</w>
as ure
re ven
oc ean</w>
m m</w>
i qu
gad daf
fou rth</w>
de ta
qu ickly</w>
o tion
man dol
em otion
compe tition</w>
b un
an ium</w>
ur anium</w>
6 2</w>
q ur
en gag
as ingly</w>
incre asingly</w>
8 3</w>
st af
s sin
provi des</w>
pre ad</w>
wides pread</w>
mat erial
ch allen
8 1</w>
6 7</w>
su bur
st inct</w>
pro ble
pro bab
o de</w>
mi xed</w>
hel ped</w>
co ast
6 9</w>
resu lts</w>
re ction</w>
p a</w>
jo ined</w>
f it
em ic</w>
attem pt</w>
ar ist
y l
s y</w>
in de
i at
ge ogr
el em
e fu
b i</w>
4 7</w>
p ain</w>
on dar
i alis
hel len
for mat</w>
di stinct</w>
con sequ
ch ap
as pec
9 .
4 3</w>
sec ondar
m am
ic ag
el ection
ec ific
sp ecific
der ived</w>
de bat
cor resp
ch icag
an smit
tr ansmit
ad dre
5 1</w>
up per</w>
kin gs</w>
i ble</w>
g ain</w>
cl ai
19 60s</w>
sci ences</w>
s m</w>
li gen
k no
eff ects</w>
al ects</w>
di alects</w>
st op
m c
in vad
cri tical</w>
var iati
v i</w>
sch war
s by
pre sby
on sible</w>
resp onsible</w>
f la
e ec
sp eec
dec ision</w>
com pleted</w>
ch os
5 9</w>
5 2</w>
resp ectivel
f ai
d ram
ch op
ti cally</w>
st ingu
ri ag
per formed</w>
on alis
ol der</w>
is tics</w>
inter nal</w>
e si
5 7</w>
pos ses
m 2</w>
i pp
en ligh
con tac
a be
si des</w>
pre fer
intel ligen
e ou
b ia</w>
ac tices</w>
pr actices</w>
we ek</w>
un like</w>
u bs</w>
si fi
re ve
organ isms</w>
gi vin
g ha
en ough</w>
eg ger</w>
an ian</w>
zen egger</w>
schwar zenegger</w>
rema inin
en co
c é</w>
vil lag
ti le</w>
per ature
tem perature
me asure
b ined</w>
com bined</w>
an it
al ec
up dat
th west
t y
t onom
s r</w>
re sources</w>
re am</w>
p ha
o id</w>
le gi
il ad
er shi
au tonom
at tri
an ne
swit zer
s cor
k u
el phi
di alec
d a
ar nin
le arnin
ac ks</w>
. :
se hol
p ton</w>
ma xim
in men
hou sehol
di stingu
col onies</w>
b ay</w>
as ses</w>
8 .
5 0s</w>
y er
t am
ph ilad
mo tor
i f
f ra
contin ental</w>
beyon cé</w>
sec tor</w>
produ ct</w>
len gth</w>
c us</w>
ver ei
under standin
po ints</w>
n m
l ection</w>
f s</w>
f it</w>
cou nter
col lection</w>
at es
ar iz
un iqu
so verei
pl ymou
mo bil
fi gur
ch ron
ap par
yp tian</w>
ser vin
ol lo</w>
la ke</w>
eg yptian</w>
e do
cl ubs</w>
an ned</w>
un ch</w>
sett lem
s atel
re bel
r i</w>
p ected</w>
or id
i us</w>
fl orid
ex pected</w>
ti tu
ser iou
s lati
le tter
di vin
ap ollo</w>
un it</w>
tr aff
st ain
s c
pen insu
op position</w>
i ve</w>
gre ates
ti li
ti anit
th ed
st ore
sou theas
o ic
n it
h ir
gre eks</w>
di eg
devel op</w>
chris tianit
ca thed
acad emic</w>
v or
u man
st ar</w>
ro om</w>
revol ution
h em
er ar
di um</w>
di men
b t</w>
an slati
tr anslati
ta inmen
p es
j e
g on
est onia</w>
er ged</w>
al ist
19 91</w>
ph oto
it or</w>
gni zed</w>
es tion
qu estion
d r
col onial</w>
at men
z antin
s cre
reco gnized</w>
r ts</w>
pro pri
off ered</w>
il way</w>
ra ilway</w>
fre edo
em erged</w>
di pl
dec reas
cou rts</w>
cal ifor
by zantin
bre ak</w>
tur ned</w>
tre atmen
st rati
ro ugh
mo del
e in
com pr
ch anne
c ar</w>
val enci
lit erar
l ar</w>
er it
at ly</w>
mo tor</w>
f th</w>
ar ran
an der</w>
19 90</w>
w ly</w>
re for
fic antly</w>
signi ficantly</w>
er eas</w>
wh ereas</w>
ec tro
ar is
ar ge</w>
al ber
wit nes
t os
s ay</w>
pl anned</w>
p ay</w>
oc rac
l i</w>
gh tin
b ce</w>
al as
s lat
no tab
impor tance</w>
gre atly</w>
en th</w>
co ver</w>
ch arge</w>
b or</w>
stru ctu
r or
pol og
ne gati
men tal</w>
gh ter</w>
ex change</w>
en tar
cri ticis
y el
re ign</w>
re ctor</w>
n ted</w>
n i</w>
ma ster</w>
li by
k o
c il
bor hoo
wor ked</w>
ti tles</w>
publ icati
neigh borhoo
ma kes</w>
le tter</w>
er ran
ab sor
w er</w>
th eti
re vi
p us
men tion
it at
ar ance</w>
anthro polog
al an</w>
ter nal</w>
ri ver
ex tin
con fe
ar ticle</w>
u st
tham pton</w>
ru ption</w>
re la
ra il</w>
pro mis
op por
ec ul
ad ca
bro adca
tur kis
tow ns</w>
ro ute</w>
j ian
e e</w>
di dat
col lap
can didat
au tom
ti ves</w>
s sive</w>
p y
ol ution</w>
l yin
ev olution</w>
el ectro
del hi</w>
ch oic
c z
at tle</w>
se attle</w>
ad ershi
le adershi
19 89</w>
u um</w>
empl oy
6 00</w>
politi cs</w>
di rector</w>
di rection</w>
an si
ren ew
pro vis
pre dic
ni ger
in her
dar win</w>
ad ver
s ses</w>
qu ency</w>
po sitive</w>
ne go
du ction</w>
d ges</w>
d al</w>
alex ander</w>
ag ency</w>
su sp
sou thampton</w>
pl ain</w>
oc ks</w>
medit erran
i ri
ec ial
sp ecial
e in</w>
ch ri
ch olog
psy cholog
anal ys
we eks</w>
u tr
tr ansi
qu ake</w>
pro por
fi ghtin
ap hic
ad ually</w>
gr adually</w>
a x
pro te
pre dat
oc cu
is ol
in al</w>
fre quency</w>
ex por
enter tainmen
en ted</w>
el im
c m</w>
attem pted</w>
a w
ter istics</w>
te enth</w>
sch ed
r n
p ital</w>
or ag
ol ved</w>
i val
i po
fi fth</w>
ev olved</w>
er cis
ex ercis
er al
e tel
pl etel
cu bs</w>
charac teristics</w>
y or</w>
val ues</w>
tri bes</w>
tar cti
ro ad
d ul
vis ible</w>
p ay
ne utr
is hin
in lan
hos pital</w>
g ir
f at
en em
e olog
com pletel
ve hic
s le
per cei
o st
ne wly</w>
n ected</w>
la unch</w>
h ken
con nected</w>
2 nd</w>
re commen
ne uman
n ag
il lu
ati onal</w>
as hken
ad cas
bro adcas
19 97</w>
wor ker
tr av
pro per</w>
equ ip
d an</w>
con tex
appe arance</w>
ac compan
vol tag
p oo
d rin
bu te</w>
an tarcti
an slat
tr anslat
ac tin
3 0s</w>
v an</w>
sco tlan
organ isati
or ian
mar riag
li ms</w>
mus lims</w>
k m2</w>
im migran
ic ies</w>
pol icies</w>
cro wn</w>
ab ad</w>
a ve</w>
nor thwest
le ges</w>
car bon</w>
c able</w>
z o
st orian
ser ves</w>
se ttin
re fu
r ur
de pic
col leges</w>
c rus
ten do</w>
nin tendo</w>
lab orat
hi storian
h mon
er fu
pow erfu
de pl
c yp
as ser
ar sen
ac cur
tar get</w>
t pu
st oc
se gmen
r is</w>
ou tpu
o gen
mas sac
hea vil
equ ival
y righ
s li
ric hmon
pre hen
p ly</w>
in side</w>
h ur
f f</w>
e ories</w>
th eories</w>
cop yrigh
c d</w>
z es</w>
z a</w>
st op</w>
s mis
per hap
or ically</w>
or gi
n dar
l as</w>
it ag
is la
in ian</w>
f ru
en tist
sci entist
an smis
tr ansmis
19 50s</w>
ti vat
ti to</w>
su gges
re forms</w>
re fer</w>
nati onalis
mex ican</w>
me tal
it ants</w>
i do
her itag
fac ilities</w>
bou ndar
ar ms</w>
19 99</w>
19 98</w>
u ted</w>
tu val
st orically</w>
st ep
si fic
re view</w>
pre tati
p pl
om inati
inter pretati
il ip</w>
ph ilip</w>
hi storically</w>
es tion</w>
qu estion</w>
er gen
c au
b at</w>
an sition</w>
tr ansition</w>
an ds</w>
st oo
p ak
m om
l ler
for mally</w>
em ergen
de tec
d red</w>
cl asses</w>
b si
su bsi
1 50</w>
o ci
fe et</w>
empl oyed</w>
e an
di atel
me diatel
im mediatel
constru cted</w>
x es</w>
p ath
mon arch
ma yor</w>
ke ep</w>
en na</w>
dis play
d p</w>
car ry</w>
a qu
sel ection</w>
r d</w>
presiden tial</w>
on is
o gu
k i</w>
i ph
den ominati
de dic
st orag
scri pt</w>
n az
l ver</w>
si lver</w>
intro duction</w>
b ad
19 94</w>
ti cl
ta kes</w>
ro se</w>
re moved</w>
pro sp
or al</w>
no vel</w>
n din
k on
im proved</w>
im mun
for mul
en for
b lin
a vin
8 00</w>
vac uum</w>
ti rely</w>
th eolog
s n
produ cin
p c</w>
m ies</w>
m bol
hun dred</w>
f ted</w>
en tirely</w>
den sit
b ow
b bc</w>
ad voc
19 92</w>
x in
x bo
ti tion
t le
s ligh
n is
le avin
k ep
k ath
en om
d '
common wealth</w>
c ce
b led</w>
z en</w>
y les</w>
ti gati
ter ian</w>
ro soft</w>
presby terian</w>
on lin
o ye
o thin
o ch
mon tan
mic rosoft</w>
ha ye
e tar
attem pts</w>
as sifi
cl assifi
a e</w>
19 45</w>
w ol
t ner
su cce
ph enom
par tner
jus tice</w>
j a</w>
go thic</w>
ge orgi
f ts</w>
ex ternal</w>
en sur
en ab
empl oye
cor ruption</w>
cir cum
ar tist</w>
an nin
ac cus
1 1
z ar
un ds</w>
suff icien
san ta</w>
in tin
gro unds</w>
g ic
fun dam
e el</w>
cre dit
contin ues</w>
ul arit
ti at
st antin
s ful
succes sful
qu arter</w>
pro ce
pou nds</w>
pop ularit
or chest
nor mal</w>
mu ham
g ar</w>
f bi</w>
em ph
el iz
e ur
con stantin
cl othin
ci alis
ten nes
si der</w>
s ance</w>
li ves</w>
in ction</w>
st inction</w>
il li
il iat
ex plain
eff ectivel
e ter
con fir
ais sance</w>
ad vis
vi et
ta ined</w>
si mul
s mo
s fer</w>
s as
per cep
on sibil
resp onsibil
ne ther
jou rn
inhab itants</w>
im pos
i ber
g dom
kin gdom
est onian</w>
di stinction</w>
de stru
ar by</w>
ne arby</w>
ap proved</w>
an sfer</w>
tr ansfer</w>
yu gos
tur key</w>
tro pic
t led</w>
s no
ow ner
mos aic</w>
l en</w>
en jo
di ence</w>
ag gre
5 th</w>
sp ectr
re cted</w>
mou nt</w>
mo vin
k y
is dic
jur isdic
ir anian</w>
ic ia</w>
i th
e z</w>
cri tics</w>
com prehen
b os
as pir
ac hes</w>
u sive</w>
ti fy</w>
ter ial</w>
su stain
on to</w>
l un
i er</w>
g th
de ep</w>
c ks</w>
ber mu
bac terial</w>
ar mies</w>
ap propri
0 0s</w>
z ati
th ol
th dra
wi thdra
so cialis
s s
pre ce
o y</w>
no bil
in gi
ha el</w>
f air
electr onic</w>
dis cri
d men
an don
8 th</w>
19 88</w>
ur ai</w>
th quake</w>
ter iz
t oc
sy mbol
re gim
r y
k a
h s</w>
ear thquake</w>
e ag
d au
a f</w>
19 96</w>
u t</w>
ter ns</w>
sam urai</w>
par ents</w>
f ast
con test
ci pit
cat alan</w>
c oo
be gin</w>
b lo
4 th</w>
19 40</w>
0 0
wi fe</w>
techn ologi
st yles</w>
st ab
pri ze</w>
e ge</w>
as sific
cl assific
an nu
al es</w>
ac com
us ag
t ally</w>
pre cipit
pe ak</w>
mar ks</w>
l ad
j i</w>
dem ocrac
achi eve</w>
y thin
x i
su per</w>
r hy
qu anti
o ke</w>
it ati
e ties</w>
d ry</w>
con sider</w>
charac teriz
ab andon
a ic
19 30s</w>
man du</w>
kath mandu</w>
jo hn
inves tigati
g side</w>
ex pressi
e by</w>
de pos
3 rd</w>
w an</w>
su ppl
st able</w>
s we
pro fit</w>
nor thwes
n y</w>
n ter</w>
g il
ex pressed</w>
ex pe
elev ator</w>
der abad</w>
hy derabad</w>
com pas
com cas
al ia</w>
ad ven
19 50</w>
x on</w>
v ance</w>
u i
stron gly</w>
san sk
r an</w>
no tes</w>
inter ven
il ipp
ph ilipp
ex ce
er ence</w>
e ore
th eore
d c</w>
ci eties</w>
so cieties</w>
au dience</w>
ar ian</w>
w ir
v ey</w>
ta ugh
si bly</w>
s low
on al
o bli
n os
m .</w>
k ag
g au
fac tor</w>
com pressi
ch air
z ho
st rin
sp iel
s atur
re ets</w>
st reets</w>
r on</w>
n tin
g dp</w>
f on
di stance</w>
ch ain</w>
an nel
an gin
al ty</w>
aff iliat
z il</w>
ti tled</w>
th eles
ver theles
pat terns</w>
p m</w>
o tion</w>
ne vertheles
me dium</w>
for war
d ati
con sci
a ks</w>
rest aur
re solution</w>
r g</w>
other wis
or tati
transp ortati
n der</w>
n avi
li mit</w>
ic ian
e hea
diff erence</w>
cor ps</w>
com bat</w>
av oid</w>
as ph
ag enci
19 95</w>
19 70</w>
th ur
shi ft</w>
s q</w>
pre dom
on ic
mic hael</w>
in si
gen oci
ec tin
e u</w>
ch angin
c tor
bre ak
bo ys</w>
b sit
we bsit
as sen
an tial</w>

  </w>
s in</w>
ren aissance</w>
mul ti</w>
me et</w>
is ion
en ty</w>
du ke</w>
cri tici
ati cally</w>
as ked</w>
st le</w>
r he
p air
ob served</w>
ni val</w>
n ac
mon umen
me tre
man dat
l lin
j .</w>
car nival</w>
car eer</w>
al co
ac tical</w>
pr actical</w>
um bia</w>
u el</w>
se ven
po etr
el se
e tre
om etre
com pounds</w>
col umbia</w>
bra zil</w>
ber shi
mem bershi
19 39</w>
subst antial</w>
shi pp
ogr aphy</w>
it ehea
wh itehea
in fan
h as
f os
e wh
de ad</w>
c son</w>
tu cson</w>
at mos
al ps</w>
v .</w>
som ewh
sec ular</w>
p s
or ian</w>
op pon
o th
in jur
f yin
f rin
e dition</w>
conta inin
c oc
an nex
ab sol
a a</w>
y l</w>
u ma
st ories</w>
s can
pas sag
ox ide</w>
man hat
in ion</w>
d ar</w>
cy cle</w>
ca stle</w>
c ad
ati cs</w>
w ag
var ian
t ch
st ered</w>
ro ots</w>
pen alty</w>
li qu
kil ometre
ec tor
e o</w>
di rected</w>
bis hop
b ar</w>
ab ilities</w>
19 93</w>
th or</w>
s fer
s ad
re ss</w>
nati onally</w>
n am</w>
man ic</w>
jo bs</w>
in ch
en ter</w>
ei gh</w>
dis cs</w>
de vo
bou rg</w>
bi ble</w>
be au
as se
an sfer
tr ansfer
a q</w>
a kin
u ou
tw enty</w>
tu tes</w>
st ances</w>
par alle
on gside</w>
la id</w>
in vit
i des</w>
gal icia</w>
fri ends</w>
ex pec
d s
d get</w>
arch ae
al ongside</w>
al ition</w>
co alition</w>
ad her
7 th</w>
19 41</w>
y ar
x th</w>
ti ati
th ea
th an
si xth</w>
sel ected</w>
re au</w>
i pal
fou ndin
d ants</w>
be gu
6 th</w>
2 50</w>
19 79</w>
19 49</w>
w ast
i x</w>
i di
fi xed</w>
em otion</w>
e thin
d war
d il
cu bis
ch arter</w>
an ma
my anma
7 00</w>
v ul
tel eph
st orian</w>
som ethin
re vis
min ut
mes sag
gol den</w>
dec ision
ca thol
bu dget</w>
b ag
3 60</w>
u in
sp iri
si onally</w>
s cop
play stati
nor theas
nor mally</w>
m o</w>
im migr
er ic</w>
di am
d les
b .</w>
an tu
19 74</w>
qu antu
pl annin
p tur
ma inst
ir aq</w>
ic ipal
mun icipal
ger manic</w>
g les</w>
em ented</w>
e ad
dis play</w>
cl oc
c ket</w>
bor ough</w>
ar di
ther mor
si ly</w>
s su
philosop hic
per mit
p tun
ne ptun
in sur
hi storian</w>
fur thermor
di gim
b ian</w>
t works</w>
produ cer</w>
princi pal</w>
pos sibly</w>
ol ished</w>
o ted</w>
o es</w>
m ap
in fal
au thor</w>
ar le
19 85</w>
x i</w>
v s</w>
tr ain</w>
th ur</w>
pl us</w>
on ou
lon ges
i tion
f ly</w>
em pha
ea sily</w>
ch arle
al led</w>
19 86</w>
19 80</w>
ta ji
su it</w>
sen ior</w>
s en</w>
ri fic
re pu
profes sor</w>
p ast
ol ence</w>
ob servati
k son</w>
k ni
k h
i a
gi ves</w>
g nin
d th</w>
d st</w>
ad mir
ac knowle
us efu
un ci
ti ou
scri ption</w>
ro om
ri val
r ses</w>
pro vem
or tly</w>
sh ortly</w>
occa sionally</w>
me tap
le ave</w>
im provem
i thic</w>
gu am</w>
g st</w>
for tun
cou nt</w>
ci ally</w>
c eas
budd ha</w>
bro wn</w>
ar thur</w>
a de
20 16</w>
y si
x tur
st ress</w>
sac rific
ran ges</w>
ral eigh</w>
par ks</w>
p om
o os
o g</w>
ne eds</w>
mon te
k al
ex ces
edu cat
di fi
de bt</w>
d am</w>
cou rses</w>
c bc</w>
bu reau</w>
b rat
b ic
at ol
ac id</w>
ac em
19 87</w>
y m
st rac
o d
mil len
l op
l l
it able</w>
in fra
h ence</w>
fou nder</w>
f rag
di ag
b o</w>
al ities</w>
ad vance</w>
accou nts</w>
a .</w>
on ds</w>
o si
j or
j a
im pe
i m</w>
i jin
es cap
e ter</w>
de pu
d v
cre te</w>
com position</w>
be ijin
a er
us sr</w>
ti gat
sou nds</w>
sett ler
s op
re ction
ran gin
ra infal
pri vil
mathem atics</w>
i ther</w>
gro wn</w>
f ear
eg ories</w>
ec uted</w>
ex ecuted</w>
cou nter</w>
con sen
cat egories</w>
an te
an asi
ath anasi
19 68</w>
19 67</w>
ti ller
th ron
th ic
ter ror
sen ger
s cul
r il
pro hi
ne ither</w>
mon arch</w>
lin ked</w>
it em
inter fer
e ar</w>
as ses
ar il
. c.</w>
y gen</w>
w ic
vir gin</w>
succes sor</w>
s as</w>
re sem
ox ygen</w>
ou ter</w>
on sor
sp onsor
ne tworks</w>
nam ib
mos aic
mol ecul
inter ior</w>
gen der</w>
de ep
de bu
co ordin
co operati
co gni
ch oos
bas ke
an es</w>
a hu
19 84</w>
y st
vi olence</w>
ti tive</w>
sou thwes
si stance</w>
r ab
on strati
ol ution
le ds</w>
in tr
i ves</w>
ev olution
e be
dem onstrati
as sistance</w>
ar es</w>
1 20</w>
vis ual</w>
viet nam</w>
ver ned</w>
sp her
si vel
re tre
pr onou
per formin
o is</w>
inst alled</w>
in frin
in ar
ic ian</w>
go verned</w>
gar den</w>
en dmen
e dic
dol lar</w>
am endmen
al em</w>
ab sen
19 82</w>
19 75</w>
19 48</w>
y techn
un able</w>
u x</w>
ti val
sic hu
pos sibil
pol ytechn
on gst</w>
ol ithic</w>
ob tained</w>
m p</w>
m as</w>
lo ad</w>
i fy</w>
i dat
g i</w>
g as
fes tival
bi gges
am ongst</w>
us alem</w>
under graduat
u tre
tu ber
ti er</w>
st eel</w>
st an</w>
re sol
re cep
r yin
on ded</w>
ogr aphi
jer usalem</w>
il ls</w>
bu tion
belie fs</w>
19 14</w>
u d</w>
t tish</w>
st inati
sco ttish</w>
s ex
ro ut
pl emented</w>
ph ras
p ian
jud ais
in tos
mac intos
er to</w>
pu erto</w>
en du
e at</w>
dis ast
de stinati
am entar
li amentar
par liamentar
ac her
19 78</w>
19 76</w>
19 69</w>
u ro
u ences</w>
ther mal</w>
st ream</w>
ou nts</w>
os exual</w>
mer ged</w>
man chest
k ist
j an</w>
infl uences</w>
in ner</w>
in et</w>
ar mac
ph armac
ap pal
am ounts</w>
am min
progr ammin
19 44</w>
z y
x x
var yin
ti ties</w>
sy mp
ro les</w>
pro val</w>
par tly</w>
p tion
o di
o a</w>
mem orial</w>
l tan
kan sas</w>
ir mati
er ies</w>
en ro
den tly</w>
d un
con fu
con dem
cal ls</w>
ber lin</w>
b rac
au gur
ar tiller
ar bor</w>
ap proval</w>
aff irmati
19 72</w>
19 20
z z
v o</w>
ti sm</w>
sti mul
sen ger</w>
refer endu
pol lu
pas senger
min ster</w>
le gen
i v</w>
i hu
har dwar
f ection</w>
e z
e ously</w>
a it
9 00</w>
19 60</w>
é e</w>
w u</w>
tr acks</w>
st ras
ou ris
ou gh
no thin
is hmen
in do</w>
iden tify</w>
ex pre
e th</w>
de os</w>
d le</w>
c tin
ar rest
an ni
19 18</w>
w av
vi ved</w>
ver sy</w>
ver nin
tin gs</w>
t te</w>
sur vived</w>
st ep</w>
si le</w>
si ege</w>
s at
pre val
pow ered</w>
pop per</w>
l bo
in tmen
hin du</w>
go vernin
g le
en cl
ec om
e gr
contro versy</w>
bro ken</w>
ar ia</w>
an dre
a p</w>
w ed
w a</w>
vi deos</w>
sol id</w>
ri val</w>
r hin
pu bs</w>
pro toc
pro ph
par ticl
nor man</w>
nego tiati
k gro
in cen
fran cis
fl ouris
f rar
in frar
en tati
el ector
ec ular</w>
contin uou
bac kgro
ati cal</w>
19 83</w>
19 71</w>
1 000</w>
ver te
ul ty</w>
u tin
spea ker</w>
sp oke</w>
mor nin
k as
ic ode</w>
un icode</w>
en dar</w>
e o
cri bes</w>
cal endar</w>
cab inet</w>
c bs</w>
ar tific
ar ante
gu arante
appo intmen
am bi
4 0s</w>
19 12</w>
v ow
u tili
ti sti
sh ot</w>
s i</w>
pro mp
pac kag
ne uro
mon ast
ma inlan
is si
in ces
im um</w>
min imum</w>
ic ts</w>
i er
excl usive</w>
ec ution</w>
ex ecution</w>
des cribes</w>
ch ihu
cen tre
2 1st</w>
19 73</w>
19 66</w>
19 61</w>
ó n</w>
vo tes</w>
us cri
un ifor
st ran
s bur
re alis
pro fit
op pin
sh oppin
no ble</w>
mus ician
man uscri
la yer</w>
i el</w>
he bre
h d
h ad
gal ler
er se
som erse
de pressi
bl acks</w>
bil lbo
an ati
al pin
y y
wor shi
west minster</w>
w .</w>
ther eby</w>
se iz
s ab
op inion</w>
on din
mol ecular</w>
gi ble</w>
fl yin
fe yn
fe wer</w>
e ton</w>
contri bution
c rit
bre edin
19 81</w>
19 11</w>
x ic
var ied</w>
st el
si zed</w>
re formati
o tics</w>
lo dge</w>
l ements</w>
h es
g la
g gle</w>
dra wn</w>
de ath
com pac
cen dants</w>
des cendants</w>
c is</w>
b ric
b ai
ar os
al sac
ab strac
9 th</w>
19 64</w>
ti cat
t z</w>
sti cal</w>
si ster</w>
sett lements</w>
s car
ru pt</w>
ran ks</w>
pr intin
pr inted</w>
ph ysi
on war
mi xtur
mathem atical</w>
m n
m bo
lin ks</w>
hi gan</w>
mic higan</w>
gr aphi
gen re</w>
g ic</w>
fin ished</w>
d life</w>
com mu
ca val
bi otics</w>
b ay
b ak
as cen
ar tisti
an ia</w>
an et</w>
pl anet</w>
an dri
alex andri
al titu
ad jac
19 56</w>
tr ay
tr ait
ti vati
sur vey</w>
stru ggle</w>
st ead
s wor
s av
re formed</w>
re aliz
pl anati
p pos
su ppos
ol ar</w>
me tab
man ner</w>
le av
l van
sy lvan
k ha
is hes</w>
indepen dently</w>
ic is
ic ip
mun icip
gr aphy</w>
g el</w>
ex planati
essen tially</w>
encou nter
en compas
cas ual
b in</w>
attr acted</w>
anti biotics</w>
19 62</w>
wh ites</w>
w ed</w>
v ou
v in</w>
ti les</w>
sti cs</w>
sp ective</w>
som alia</w>
so il</w>
sit uat
recor dings</w>
r pm</w>
r nal</w>
pro claim
pr inces
pl ex
p y</w>
p an</w>
no bl
ne pal</w>
n is</w>
n as</w>
mon gol
m ic</w>
l an</w>
k han</w>
jou rnal</w>
j ean</w>
it at</w>
im plemented</w>
en es
el ve</w>
tw elve</w>
e k
con sec
car ryin
c eded</w>
bat tles</w>
ar ged</w>
ch arged</w>
an wh
me anwh
an ist
19 58</w>
19 53</w>
tri bun
tel ecom
sy mbo
s cou
ran kin
on ist
on er</w>
o tle</w>
n ties</w>
mo difi
k at
k ad
j en
inves tigat
inter fac
in ea</w>
in augur
il itat
i wan</w>
ta iwan</w>
gu inea</w>
ex press</w>
de fic
d lin
cou nties</w>
com plex
at for
pl atfor
arist otle</w>
al pha
ag ues</w>
ac ci
19 77</w>
wil dlife</w>
u th</w>
u gu
tan eously</w>
t b</w>
t ar</w>
pre sti
pre cis
pe tro
ou rs</w>
oc ean
jac kson</w>
j az
in qu
in ch</w>
h o</w>
gh anist
f rac
di ges
cl aus
ch lor
b lan
b la
au to
as signed</w>
af ghanist
19 47</w>
y an</w>
st ein</w>
sp endin
resp onded</w>
on unci
pr onunci
n sylvan
pen nsylvan
n ol
mun icati
telecom municati
m ph
in ter</w>
in ctive</w>
i op
i ar
h ag
ge olog
em bar
e on
di et</w>
d led</w>
con fi
bu tes</w>
bri ef</w>
ac her</w>
ti ced</w>
sur ve
sin ger</w>
si gh
se arch</w>
pre dec
n ger</w>
you nger</w>
n ance</w>
mar vel</w>
lit erally</w>
le agues</w>
j ab</w>
h z</w>
g b</w>
fre sh</w>
fem ales</w>
electr onic
el ab
d ged</w>
com pen
com pati
c c</w>
ap ply</w>
ap ost
ad ju
20 00s</w>
19 65</w>
19 52</w>
ur ugu
ti ssu
ta xes</w>
st ands</w>
re fin
p tol
p ound</w>
m mer
k y</w>
j eff
it ual</w>
in fec
in can
il legal</w>
fac ulty</w>
f red</w>
f m</w>
ev angel
er son</w>
em issi
em entati
e kly</w>
di rection
d in</w>
confl icts</w>
19 63</w>
1 20
we ekly</w>
territ orial</w>
t ul
super ior</w>
st inctive</w>
sec ution</w>
sa xon</w>
ro ck
regar dles
re cal
r at</w>
pas senger</w>
li ver
k ur
in it
in don
iden tical</w>
ic ly</w>
publ icly</w>
i ma
h u</w>
h .</w>
geogr aphic
g s
di stinctive</w>
contin uin
ch annel
bre akin
anal og</w>
ad din
ab olished</w>
19 51</w>
19 20</w>
writ ings</w>
war far
vi enna</w>
ver ty</w>
ul tr
u pr
s au
re mem
po verty</w>
pain tings</w>
oc kin
n ur
lan ds
in er
high way</w>
hab itat</w>
gre gor
fac ilitat
er ia</w>
der alis
den ied</w>
cor rect</w>
con son
ch arit
bi oti
bal kan
as sa
ac cum
uma yy
ti lit
si gnin
s is</w>
regi stered</w>
re mar
pun jab</w>
or ph
or ities</w>
op ter
on ry</w>
oc rat
ni um</w>
millen nium</w>
k o</w>
k an</w>
ir itual</w>
sp iritual</w>
in pu
in fer
g nati
g ap
fran cis</w>
ec ialis
sp ecialis
c ut
ar ges</w>
ch arges</w>
an gi
am inati
19 55</w>
19 54</w>
win ner</w>
te acher</w>
t les
st en</w>
sen sor
sch olar</w>
s nes
pl eas
or ted</w>
nego tiat
l el
in fection</w>
i g</w>
g ally</w>
ex aminati
e di
con vic
com mem
col lab
car ib
cap pel
bo tan
an sition
tr ansition
ac hed</w>
19 42</w>
v ah</w>
u min
sla vs</w>
ro mos
re am
ra inian</w>
uk rainian</w>
p es</w>
op hy
op hon
m me
le gally</w>
l ular</w>
iden tific
f tin
er ac
el der
e um
e bal
dis sol
d é
con vin
ch romos
bu tt
bas ebal
ban ner
as sas
an ton
am me</w>
war sa
ti ven
sk ills</w>
s z
resp ective</w>
re constru
pra yer</w>
per spective</w>
par tially</w>
p .</w>
or bit</w>
om etr
mo de</w>
mis sile</w>
m pe
k ol
insti tutes</w>
in antly</w>
im pr
i gr
fi ghter</w>
fe deralis
dis mis
d t</w>
con fron
ch en</w>
c rac
bu tin
bo ards</w>
ar gen
ag ents</w>
19 10</w>
x y</w>
wor st</w>
un ifi
tre ss</w>
te dly</w>
taji kist
stru gg
stren gth
stati stics</w>
st ream
si re</w>
re view
re ctor
qu enci
progr amme</w>
po inted</w>
mil iti
m nas
m n</w>
k it
k ir
inter action
il le</w>
i gn
ha ir</w>
gy mnas
g li
fre quenci
en sive</w>
off ensive</w>
e wor
cro ssin
cri mes</w>
con dition</w>
circum stances</w>
ar rhe
di arrhe
ar ned</w>
le arned</w>
am ber</w>
19 22</w>
19 17</w>
19 00</w>
under stoo
un te
tr uth</w>
tr um
th ri
se em</w>
r ho
predom inantly</w>
ow ner</w>
m b
lin ear</w>
li fi
le ban
it ly</w>
initi ative</w>
h oc
gen eral
for mat
er as</w>
ec olog
ear ned</w>
du ty</w>
di gi
d or</w>
compe tition
b bed</w>
ad mit
ac ier</w>
gl acier</w>
19 38</w>
y e</w>
vol unte
v ed
tr yin
t to
re loc
r nam
tou rnam
pl ementati
ph ot
p o</w>
p h</w>
or ative</w>
op tical</w>
on olog
on go
mo dul
ma il</w>
lo gic</w>
le ys</w>
k am
j ones</w>
j as
im plementati
f ab
es ar</w>
ed itor</w>
corresp ondin
ca esar</w>
c i</w>
anten nas</w>
al um
ac tor
ac ids</w>
19 46</w>
z he
w ou
vi vin
ver tical</w>
ver nance</w>
ti fu
th ma</w>
sur vivin
st am
sp ecul
sin gles</w>
simul taneously</w>
ro llin
reli ef</w>
pre served</w>
ph onolog
per fec
p tu
o ta</w>
mus eum
min ute</w>
me dal</w>
lit erac
li fe
la yer
k ne
im possible</w>
il lin
i din
ho vah</w>
je hovah</w>
go vernance</w>
fe el</w>
f ed</w>
f .</w>
er dis
las erdis
en tities</w>
e wer
e tion</w>
di rector
de ter
cro ssed</w>
com plain
b ound</w>
as thma</w>
ad mis
19 43</w>
19 31</w>
un ion
ti ms</w>
vic tims</w>
ti ed</w>
th en
t u</w>
st ur
st ay
se ek</w>
s pl
re over</w>
re gen
re ements</w>
ou red</w>
o u</w>
mo reover</w>
k lin</w>
ist ry</w>
in for
ic enna</w>
har bor</w>
fran klin</w>
f led</w>
er ialis
mat erialis
ec cle
e en
dic tat
cr yst
con fes
chem istry</w>
bac ked</w>
av icenna</w>
ar is</w>
ag reements</w>
ad lin
19 36</w>
sy mph
sh ares</w>
ro cket</w>
ren cy</w>
rele van
r as</w>
publ ishin
pro tes
pl anes</w>
os ph
nati onal
mar ath
lu ftw
l ected</w>
k le
k es
g m</w>
fram ewor
ex plain</w>
de sire</w>
cri ption</w>
consol idat
col lected</w>
ch ants</w>
be sides</w>
ban dwi
b ad</w>
at us</w>
ar ities</w>
: 00</w>
w inter
ver se</w>
ti cu
ter med</w>
su mmer
st ay</w>
si es
sh rin
r able</w>
pro pag
o qu
nor fol
n ad
k ö
k g</w>
in ic
ic itly</w>
pl icitly</w>
ha yan
fin ance</w>
f lat
f at</w>
en se</w>
en on</w>
e tri
du ties</w>
des cription</w>
cur rency</w>
compe titive</w>
co des</w>
cap abilities</w>
bur ied</w>
bl ocks</w>
bil ls</w>
ar te</w>
an ythin
a es
19 59</w>
19 57</w>
vil la</w>
vi ets</w>
under lyin
u ef
sy mme
su gar</w>
so viets</w>
sin gin
simp lifi
si ded</w>
re son
po thes
per mis
on iz
o des</w>
mou nted</w>
mon ks</w>
mon etar
ma hayan
inter nationally</w>
hy pothes
f ection
er ro
en tin
en sed</w>
lic ensed</w>
en han
em pi
e gi
e af
defin ition
connec ticu
con go</w>
bur ma</w>
bri ef
bo tto
alter nat
ac cel
19 30</w>
19 19</w>
z i</w>
z a
x on
vin yl</w>
un les
un kn
to tal
ti cus</w>
t lin
su itable</w>
s formed</w>
re sor
re bu
pun ishmen
p tin
p av
ne olithic</w>
lo dges</w>
k ie
jeff erson</w>
j um
il ian</w>
h ud
fi ber</w>
eth nic
en cin
ed onian</w>
e kin
di vor
del iber
contro ls</w>
con sis
can cer</w>
bur mes
an sformed</w>
tr ansformed</w>
19 37</w>
y day</w>
w al</w>
tr action</w>
th on
ta yl
stati stical</w>
se ekin
re produ
presiden cy</w>
por tray
por tion
pol ariz
p ad
l tan</w>
su ltan</w>
k in</w>
ic om</w>
i ps</w>
gra vit
g est
ex pel
en dan
em igr
di oc
col legi
bu sies
be ar</w>
at titu
an ch
am ma
ad vic
a pl
a hea
19 13</w>
y a
w ai
ther eaf
th war
t com
t ator</w>
su mer
sec tor
sa xon
ro ph
re ci
re be
ra ft</w>
r ne
r na</w>
poten tially</w>
pl az
os yn
o th</w>
o on</w>
o k</w>
nati ves</w>
me ter</w>
lo yal
lo gic
lin eag
jo inin
j r.</w>
is ition</w>
ever ythin
en dly</w>
fri endly</w>
differen tiat
dec orat
d rag
crit eria</w>
com pil
ci olog
so ciolog
car bon
b stance</w>
su bstance</w>
b rus
ar ra
ar ian
al ban
z er</w>
w y
val leys</w>
un cer
th ag
ter war
st ac
ro utin
ro os
repl acem
re cre
qu een
produ ction
or iz
min orities</w>
les ser</w>
l é
i onal</w>
gi um</w>
g it
fi fa</w>
f ected</w>
en cy
ch amber</w>
can cel
bel gium</w>
af terwar
acknowle dged</w>
accep tance</w>
19 34</w>
. 5</w>
y ag
u c
ti vis
sur pas
su ltan
ser ver</w>
re con
ra ids</w>
phenom enon</w>
p en</w>
or tin
n cil
lin col
k sh
k ru
jud gmen
jou rne
it ance</w>
in ance</w>
g by</w>
fran co</w>
er nal</w>
el ites</w>
e teenth</w>
d av
cou ncil
ch ance</w>
bor ne</w>
ar bit
al lel
ad way</w>
ad am</w>
ab road</w>
un usu
u th
sin gap
sen sitive</w>
ru gby</w>
re cru
r &
progre ssive</w>
pl ebe
or ter</w>
op tion</w>
on den
on ati
o ak</w>
nin eteenth</w>
n theti
sy ntheti
mu tati
mor tal
mer chants</w>
mar ia</w>
mac edonian</w>
la kes</w>
l yn
k to
k ic
j ar
in ser
il road</w>
ra ilroad</w>
i as</w>
g bir
g ac
f lan
eu kar
eth iop
er mo</w>
pal ermo</w>
er bai
en titled</w>
en ly</w>
em en</w>
d shi
d r.</w>
bro ok
bro adway</w>
bri gad
b sti
su bsti
az erbai
an atol
ac cen
z han
wor ms</w>
w ear
ul um</w>
u ble</w>
tr ap
th usi
th dre
wi thdre
te acher
t gag
si red</w>
shi fted</w>
s ap
pro to
per mit</w>
ne dy</w>
mor tgag
l on</w>
l '
ken nedy</w>
k os</w>
k h</w>
in ion
i ar</w>
h ā
h ta</w>
h di</w>
h al</w>
ec ifi
sp ecifi
e e
des kto
den tal</w>
de sired</w>
com pound</w>
c un
be ings</w>
ar ro
al umin
a .
19 07</w>
war nin
ver sar
u l</w>
tu mn</w>
st ain</w>
sou thea
sam uel</w>
ro tor</w>
re tch
ra jas
pri ot</w>
per secution</w>
o to</w>
ne wer</w>
n t
lan ded</w>
l ds</w>
instru mental</w>
in ican</w>
gal ician</w>
fam icom</w>
ex cel
ever yday</w>
er arch
hi erarch
en tity</w>
el led</w>
e es</w>
dom inican</w>
di electri
dec orati
dan iel</w>
cou rag
cor onati
con fin
con cei
com ic</w>
ci fi
c ras
bar oqu
au tumn</w>
at ticus</w>
anni versar
an ced</w>
al fred</w>
a z</w>
vi ewer
u it
tur ks</w>
tri ents</w>
tr ust
tan eou
t ner</w>
st retch
som eon
s oc
ric ulum</w>
reac hes</w>
re vel
re ally</w>
pl yin
pi gmen
n th
man if
ma inten
le var
k u</w>
im plicati
i k</w>
i .</w>
hol ly
gni ze</w>
reco gnize</w>
fin dings</w>
ex plicitly</w>
em brac
el min
e el
dom inance</w>
cur riculum</w>
cru cifi
contri bute</w>
cel lular</w>
c t
bou levar
beau tifu
as onry</w>
em asonry</w>
an gle</w>
al lati
accou nted</w>
ac itor</w>
cap acitor</w>
ac ha
19 09</w>
z ones</w>
y iel
wh elmin
tri bute</w>
ti sin
th oo
sy nth
si as
s wi
re sur
q a
pl orati
over whelmin
ou tcom
op tion
m r.</w>
l la</w>
k el</w>
it ar</w>
inst allati
i time</w>
mar itime</w>
g on</w>
fre emasonry</w>
for bi
ex plorati
er gin
el lin
dis sem
di zed</w>
dem ands</w>
cy priot</w>
cul tivat
con fus
commer cially</w>
c ke
bar bar
accou ntin
ac ier
gl acier
a ther
3 50</w>
18 76</w>
0 th</w>
x ati
un ific
tri bal</w>
ter ra
st ea
sh orter</w>
ser vat
sam oa</w>
s men
s formati
ro scop
ro ot</w>
ri dge</w>
rest orati
re sc
pol ogi
pl ore
pen etr
ow fal
sn owfal
oc rat</w>
o v</w>
o te</w>
it arian</w>
in der</w>
i able</w>
g ab
f l</w>
f est
ex plore
en si
em ergin
el la</w>
eccle sias
e fic
dis co</w>
d able</w>
d .c.</w>
consti tute</w>
cl ergy</w>
bo hem
b ati
arch ives</w>
ar ks</w>
anthro pologi
an sformati
tr ansformati
al ifi
qu alifi
wil son</w>
war ner</w>
ver nor
u ously</w>
u el
st or</w>
si zes</w>
ro ger</w>
ra id</w>
pro aches</w>
pre ser
os aur
o dis
no vel
le gac
lac hta</w>
sz lachta</w>
l um
l ler</w>
j e</w>
il st</w>
wh ilst</w>
il led</w>
il iar</w>
her eti
h r
h en</w>
h ec
go vernor
g ements</w>
fam iliar</w>
equ ipp
en thusi
en dur
e ologi
e et</w>
dem ocrat
ben efic
as simil
ar rest</w>
am phi
ac efu
a ked</w>
19 32</w>
19 25</w>
18 71</w>
ñ a</w>
ã o</w>
un tar
un employ
ul ariz
tac eou
st ence</w>
rema inder</w>
re source</w>
re les
pu pil
on gin
o dy</w>
man uel</w>
m w</w>
k ew
k able</w>
jec tives</w>
is ive</w>
in um</w>
in fection
ic ac
i gned</w>
gro ss</w>
g ou
f li
el se</w>
e ered</w>
de gr
d b
cre taceou
cen ded</w>
des cended</w>
c ic
bel ongin
b mar
su bmar
b contin
su bcontin
as por
di aspor
as ci
ap proaches</w>
an us</w>
19 40s</w>
19 08</w>
ə s</w>
z el
x ur
v is</w>
v ast
u li
ti eth</w>
th ew</w>
th eologi
t .</w>
su dan</w>
su bor
strat egi
st mas</w>
s cat
ro win
re signed</w>
rat ings</w>
pu rely</w>
politi cally</w>
pl osi
ph osph
ph olog
per iph
ou tle
on aries</w>
nu trients</w>
n y
mor pholog
l us
l k</w>
k az
j on
ist rat
mag istrat
inter action</w>
im min
ho tel
gu itar</w>
g ger</w>
g ger
g az
g ay</w>
for bes</w>
fe ud
en su
en acted</w>
em ul
ec tiven
e win
e eds</w>
du bbed</w>
d hoo
il dhoo
con tes
com ed
chri stmas</w>
ch ildhoo
ch ae
c ements</w>
ar tmen
ap artmen
an ic</w>
an atom
ac tor</w>
ac ticed</w>
pr acticed</w>
ab ra
ab bre
a q
19 29</w>
18 54</w>
z i
z am
var iable</w>
tro phi
ta inin
t nes
st um
st ro</w>
sp ot</w>
sp eeds</w>
si pp
sis sipp
si lic
s lan
rit ual</w>
ren owned</w>
re au
r r
pu te</w>
produ cer
pre gn
pe aks</w>
pe acefu
par tner</w>
or ms</w>
or ange</w>
ob server</w>
mis sissipp
min eral
mad ras
m or</w>
li kew
l om
l is</w>
it ted</w>
in ou
h man</w>
gu ide</w>
gu ards</w>
governmen tal</w>
f c</w>
eth eles
non etheles
en tist</w>
sci entist</w>
el der</w>
eff ectiven
e v</w>
e ap
dis pute</w>
dec isive</w>
d as
com promis
col oniz
b en</w>
at en</w>
an ne</w>
8 0
y wh
win ner
w ton</w>
ven ues</w>
ti fyin
th ail
st orms</w>
st eve</w>
st ake</w>
si onaries</w>
sh eet</w>
ser bian</w>
se ph
sco tt</w>
san ction
ro tat
qu alities</w>
presen tati
pre ssive</w>
per pe
p in</w>
o typ
o is
o diver
mis sionaries</w>
m b</w>
l tr
l b</w>
l .</w>
k or
han isms</w>
mec hanisms</w>
han dlin
han dle</w>
h t</w>
h d</w>
gr amma
fron tier</w>
en or
en gth</w>
vel ength</w>
wa velength</w>
en dor
ec os
dem ographi
con figur
bu reau
bor ough
bi odiver
ar id</w>
an der
an ded</w>
dem anded</w>
19 33</w>
18 70</w>
18 61</w>
y m</w>
w ron
w o
vol can
tur nin
transp orted</w>
ti fac
th eis
th al
stru ck</w>
st us</w>
sol ution
sequ ences</w>
scri ption
re ssed</w>
st ressed</w>
re ic
re cit
pro fil
por aril
tem poraril
pl etion</w>
pas sive</w>
on eer</w>
pi oneer</w>
mem bran
m tv</w>
m mar
su mmar
lu xur
li eu
le um</w>
petro leum</w>
l ur
l ul
k ou
im pli
hom osexual</w>
gr aphic
fe edin
er ance</w>
tol erance</w>
ec raft</w>
e dition
dis appe
den cy</w>
de vi
d sor</w>
win dsor</w>
d ra</w>
d nes
d ag
corresp onden
cor ner</w>
contri butin
contin uously</w>
com pletion</w>
cam bridge</w>
c ric
c kin
bi ogr
ati ves</w>
as sis
as onal</w>
se asonal</w>
as ants</w>
pe asants</w>
ap ps</w>
ap arte</w>
an ted</w>
am ents</w>
19 23</w>
18 98</w>
1 30</w>
withdra wal</w>
val id</w>
u anian</w>
ti mi
ti ar
th uanian</w>
th al</w>
t do
t break</w>
sy mb
stat ute</w>
si rable</w>
si ls</w>
si lk</w>
ru pted</w>
ro cks</w>
pu tes</w>
pri orit
pre ssin
ou tdo
ou sti
on ses</w>
resp onses</w>
o ided</w>
mo ves</w>
m ockin
lic ense</w>
li thuanian</w>
is ph
in er</w>
il iz
i ver</w>
hel pin
han dled</w>
ha wai
h ul
gu ardi
g zho
en zy
en tieth</w>
tw entieth</w>
en sin
lic ensin
dis putes</w>
den mar
de sirable</w>
de fa
d us
av oided</w>
attri butes</w>
atten dance</w>
at ed
ar ticl
al is</w>
ac ousti
a o
a is</w>
19 27</w>
vo yag
vi val</w>
v ital</w>
tur ner</w>
sur vival</w>
st eph
st ak
se ein
ro wed</w>
ro tati
ri de</w>
recommen dati
re infor
ou snes
os per
or ly</w>
or ad
on ian
on able</w>
n ab
moder nis
mic roscop
l us</w>
l ud
is ode</w>
in ces</w>
in c.</w>
h l</w>
gor ith
f i</w>
exten sivel
ep isode</w>
e ir
e al
dram atically</w>
dem ocrat</w>
de ities</w>
com pli
cl eric
cer tific
car go</w>
c ow
b av
az ines</w>
al gorith
acqu isition</w>
ac tivel
a erial</w>
19 16</w>
. 7</w>
é s</w>
y in</w>
wi reles
w d</w>
v la
u a</w>
ti san</w>
st om</w>
st arts</w>
sp read
si les</w>
regi ster</w>
re sis
p ā
p cs</w>
or able</w>
on du
om eter
oc kad
o x</w>
nor thea
n bc</w>
mo ham
mis siles</w>
mat thew</w>
mar gin
k ki
in formed</w>
il igh
tw iligh
ic ondu
sem icondu
i j
hem isph
gro ove</w>
fal len</w>
en ric
empha sized</w>
ear nin
dou bled</w>
di fic
col onist
ch us</w>
ch arts</w>
c edu
pro cedu
bo tt
bl ockad
assem bled</w>
ar ou
ar ag
an yon
ac le</w>
a en
19 24</w>
18 48</w>
1 1.
y co
y ah</w>
w is</w>
vol untar
u g</w>
u an</w>
tr aliz
th olog
ter ies</w>
tel egr
si fy</w>
se gre
ro ll</w>
re served</w>
r t
qu ak
pu mp</w>
pri ots</w>
pr inces</w>
pou ltr
po orly</w>
ph eric</w>
p t
p ion</w>
p c
on el</w>
nom inal</w>
mounta inou
mo tivat
mag azines</w>
lat eral</w>
j ay
i fer
hou sed</w>
h us</w>
gu id
for um</w>
fi ber
f ty</w>
f an</w>
ever yon
ed onia</w>
e onic</w>
ol eonic</w>
nap oleonic</w>
din avi
scan dinavi
d ne
d har
cy priots</w>
cu ba</w>
cen traliz
cap ital
cal iph
bon aparte</w>
awar enes
arran gements</w>
ar tifac
an da</w>
al be
adver tisin
. co
z able</w>
y stal
w ri
vi ii</w>
u ch
u ania</w>
tri gger
th uania</w>
th ly</w>
ta il</w>
t olog
t boo
su ez</w>
stat ements</w>
st ad
so cially</w>
s win
s lop
ri ots</w>
ri ba</w>
phot osyn
n chron
sy nchron
mac edonia</w>
m g</w>
li thuania</w>
j o</w>
is cop
in hi
in do
ic it</w>
i orit
i es
hol dings</w>
hi mac
he adlin
ge ometr
ex plosi
en dow
dis pat
diam eter</w>
del ta</w>
de va
d mar
cre ative</w>
cr ystal
con jun
co inci
cen sor
can ton
be hal
atmos pheric</w>
at inum</w>
pl atinum</w>
arch bis
am pion</w>
ch ampion</w>
af ut
fun afut
ac ecraft</w>
sp acecraft</w>
a x</w>
a un
19 28</w>
19 21</w>
18 80</w>
18 65</w>
18 55</w>
y o</w>
u id</w>
tr ail
ti zen</w>
ti ble</w>
t standin
st ones</w>
sh ore
scri pts</w>
s mar
ro yal
ro us
repe ated
refer ee</w>
re stri
qu oted</w>
pop ulariz
ow ns</w>
ou tstandin
orthodo xy</w>
o hi
o bil
o '
li us</w>
l or</w>
j ay</w>
it el
in nin
in formal</w>
in fected</w>
i tive</w>
har bou
gu stus</w>
fl uid</w>
fe ed
fe ather
f ies</w>
ep iscop
e war
e ken
we eken
di pol
d os
cri bin
consci ousnes
cl ocks</w>
ci tizen</w>
c tivit
au gustus</w>
at test
ar ific
cl arific
an thon
an ings</w>
a g</w>
. 1</w>
un successfu
u be</w>
tur ally</w>
ter restri
ter osexual</w>
sy nag
st ul
shi fts</w>
s k</w>
s cur
re gain
re ces
por table</w>
olog ically</w>
ol ition</w>
oc ta
o an</w>
non profit</w>
ne wton</w>
n thes
sy nthes
mic ro</w>
mar kin
mad aris</w>
m é
m ly</w>
lin gs</w>
it alis
inst ein</w>
in is
i v
i ke</w>
ho kki
he terosexual</w>
g ru
fos sils</w>
eu tical</w>
pharmac eutical</w>
est inian</w>
pal estinian</w>
es sor</w>
predec essor</w>
en tial</w>
eff icac
ea ster</w>
e tt
des cribin
d son</w>
d h
cu stom</w>
col orad
cl ust
chie fs</w>
ch ai
car thag
cap italis
c ds</w>
c af
autom atically</w>
at ea
asses smen
ap plyin
anti bioti
angi osper
ad ual</w>
gr adual</w>
ac tly</w>
ex actly</w>
ab origin
1 10</w>
í a</w>
w s
w found
v able</w>
u ph
transi stor</w>
ti te</w>
ti red</w>
ti me
t z
su ad
standar dized</w>
st ently</w>
sou nd
si stently</w>
se dimen
rit ual
re tro
re organ
pl atea
pin yin</w>
per former
on tal</w>
ol arly</w>
sch olarly</w>
oc ked</w>
o zo
o ys</w>
o ir</w>
ne wfound
n cem
mo dat
man ip
man dy</w>
lo yal</w>
le gs</w>
l il
k os
iz ontal</w>
infl ux</w>
in ton</w>
in test
in car
im pressi
im mac
i dem
hor izontal</w>
gre co</w>
gh ty</w>
for cin
ep idem
engin eer</w>
en lar
en dshi
fri endshi
en able</w>
e al</w>
dis continued</w>
d hi</w>
cro wd</w>
con sp
co stum
cl inic
ch arter
car riag
bre eds</w>
ben jam
bat tle
bas sad
b scri
su bscri
b mit
su bmit
as hes</w>
ar shi
ol arshi
sch olarshi
am bassad
al loc
accom modat
19 01</w>
18 60</w>
y side</w>
y d</w>
wel far
vic tor</w>
ver nac
val ued</w>
ti cati
th rac
th ian</w>
ten ces</w>
st al</w>
sh ut</w>
re lu
r hoo
r ca</w>
q ian
pre dati
par tial</w>
ou tlin
or le
or gan</w>
on em
nor mandy</w>
no te
n mos
mi tive</w>
pri mitive</w>
me te
mar gar
lit erat
li fest
le wis</w>
kil ometer
k pa</w>
inter view</w>
inst ances</w>
in ic</w>
i der
hel ps</w>
h ically</w>
ge tati
ve getati
g xi</w>
g t
g ast
em onial</w>
em be
ec tor</w>
e hol
e ep</w>
di stur
di min
dec orative</w>
d ni
d as</w>
cor te
contro llin
contro ller</w>
con sistently</w>
con for
co ined</w>
cl oth
cl inton</w>
ci pat
ch ip</w>
ch eap
cer tifi
cer emonial</w>
cem eter
c rati
bou rhoo
neigh bourhoo
ber nar
bap tism</w>
attr action
ar cti
anti cipat
annou ncem
an tati
an sw
am mes</w>
am mati
ac uat
ev acuat
18 89</w>
1 40</w>
. 2</w>
ā na</w>
í li
y ti
x ii</w>
wh eel
w ser</w>
ver bs</w>
v ants</w>
u able</w>
val uable</w>
th odis
ter ian
st ev
si mon</w>
ser vants</w>
sen ator</w>
s u</w>
s mel
s kin
s f
refer ences</w>
re ag
progr ammes</w>
pro lon
pro found</w>
presby terian
po ets</w>
po et</w>
pl ished</w>
p pressed</w>
su ppressed</w>
on eti
ph oneti
ol ds</w>
off sprin
o z
o techn
o it
no tati
me thodis
lan dmar
it orial</w>
iden tifyin
his ticat
sop histicat
h t
for mal
ex ual
er ror
er re</w>
el ag
dou bt</w>
dis cre
d les</w>
contro ller
com mo
cir cle</w>
cathol icis
can ton</w>
c tan
bu ff
bro wser</w>
bo dy
bat teries</w>
b c
ati vel
as íli
br asíli
as sur
as so</w>
ancest ral</w>
an cy</w>
accom plished</w>
ac tivat
ac ial</w>
a w</w>
18 90</w>
18 30</w>
' m</w>
' an</w>
á re
y on</w>
y lan
y bo
y ards</w>
y am
x ion</w>
x ic</w>
w ren
v atel
ur ban
un rest</w>
tr ines</w>
to xic</w>
thes sal
th um
ter mat
ten dency</w>
sou thwest
sel ective</w>
repor tedly</w>
regi strati
re an</w>
pu mp
pro pon
pri vatel
po em</w>
pl acem
par tisan</w>
par ticle</w>
o ke
o be
nor way</w>
mus cle</w>
men tati
k ab
jo han
is les</w>
ir aq
il iati
ic ide</w>
h ms</w>
g om
fi fty</w>
fer tile</w>
ex cit
em ble
elem entar
ed itorial</w>
e zin
e i</w>
e ets</w>
doc trines</w>
di oxide</w>
di aries</w>
den se</w>
de pri
d ro</w>
d r</w>
cou nts</w>
contr acts</w>
bat tal
b tropic
su btropic
b by</w>
b au
at ev
wh atev
at eral</w>
arch ive</w>
ar gin
am pli
af termat
ad ow</w>
a o</w>
19 03</w>
18 78</w>
18 72</w>
ο ς</w>
á n</w>
x te
w ned</w>
un cle
ti sed</w>
th under
t ted</w>
succes sor
si tivit
si onal
se eds</w>
ri ot</w>
re servati
r é
profes sional
pre scri
pl icit</w>
on aliz
ob scur
ob jectives</w>
n un
n cin
n ca
n b</w>
mi stak
me anings</w>
ma ker
m ps</w>
m im
lo tte</w>
lo go</w>
lis bon</w>
la wren
ke ys</w>
ke ybo
is ot
is ian
ip elag
in fin
in equ
il way
ra ilway
gl acial</w>
ge ttin
fre ezin
fir ms</w>
es qu
erit rean</w>
er eby</w>
wh ereby</w>
er dam</w>
st erdam</w>
empl oy</w>
em press</w>
el ls</w>
el le</w>
eg oriz
ec tac
sp ectac
e es
e dis
du cin
dis solution</w>
di mi
vla dimi
d j</w>
d g
cou nted</w>
confer encin
col laborat
ch ain
cat egoriz
c el</w>
bor rowed</w>
bl ues</w>
au dit
arch ipelag
ar nol
ap hs</w>
ap hically</w>
am sterdam</w>
7 50</w>
19 35</w>
18 80s</w>
18 15</w>
yan gt
y ph
y chae
x ible</w>
w on
v s.</w>
ur ia</w>
un dan
tr uth
ti san
ti re
ti men
th car
ter tiar
super iorit
stat ue</w>
sp ortin
sol uble</w>
sen tences</w>
sen sitivit
sem inar
scri ptu
s mit</w>
s cep
s ally</w>
refl ectin
read ings</w>
re tri
re ls</w>
r cc</w>
pon tific
pol ychae
pl antati
p oc
or tag
sh ortag
on ged</w>
om ni
om etri
ol et</w>
my tholog
mon thly</w>
mi xin
mi ke</w>
mag nit
m in</w>
l ence</w>
k war
k .</w>
j im
is her
in jec
in ian
i vati
i orat
hos tili
hab sbur
for ty</w>
fle xible</w>
es ticat
es sit
nec essit
es co</w>
un esco</w>
er ected</w>
en ses</w>
en ch
en ag
em br
el ings</w>
fe elings</w>
econom ically</w>
ec ution
ex ecution
dom esticat
dis courag
di stances</w>
dec ide</w>
d wel
d ge
d ac
crucifi xion</w>
cre ator</w>
co stly</w>
ch ris</w>
ch argin
b ts</w>
ati ci
an smit</w>
tr ansmit</w>
an sac
tr ansac
am ic</w>
al thcar
he althcar
19 05</w>
19 04</w>
z o</w>
vin gs</w>
ver ies</w>
us af</w>
ur gic
un prece
um ns</w>
u tilit
tri stan</w>
ti um</w>
ti qu
ther hoo
ten ced</w>
te enag
tac tical</w>
t sk
t cm</w>
stri kes</w>
st apl
sp ra
ser bia</w>
sen tenced</w>
s c</w>
re war
re min
re cy
r er
pro sec
pro mul
pil ots</w>
ph illi
p th</w>
p ie
ou tbreak</w>
op ot
op inion
on alist
n ba</w>
mes opot
mathem atici
m us</w>
lit urgic
la ure
l nes
l fu
k m
k id
j in</w>
intro ducin
initi atives</w>
inher itance</w>
incl usi
in ev
i or
i ab
high way
h el</w>
gy mn
fun gi</w>
es cal
er ra</w>
en forced</w>
em ir
em bas
dis hes</w>
der ives</w>
der ivati
de pth</w>
d ras
con crete</w>
com pul
com for
col umns</w>
co veries</w>
dis coveries</w>
bo yco
autom obil
attem ptin
ap her
al tar</w>
al len</w>
al ific
qu alific
2 40</w>
19 02</w>
. 8</w>
. 4</w>
z ilian</w>
z an
y lin
x tu
wh eat</w>
vi oral</w>
ver bal</w>
v on
v ag
under wen
u ter
tr acted</w>
tou rs</w>
ti se</w>
ti gh
ther av
tac tics</w>
ta inly</w>
sun ni</w>
st ow
st antly</w>
simil arities</w>
si oner</w>
si gnati
sh adow</w>
ser bo</w>
sec onds</w>
sal vad
s r
ro us</w>
pre fer</w>
pra iri
pl oit
pil gri
pic asso</w>
p ru
op hil
on wi
on eer
pi oneer
oc aus
o ton
ni xon</w>
ne ws
nati onwi
n m</w>
n au
n ally</w>
mo dific
mas onic</w>
mar ian
li ft</w>
lan cas
l p</w>
ju áre
it er</w>
inter sec
in gre
in ag
im provin
ic le</w>
i w
hol ocaus
her oes</w>
g ma</w>
ex ploit
em entar
el ter
sh elter
e ft</w>
cul tivati
corresp onds</w>
compar ative</w>
ch aris
cer tainly</w>
bri dges</w>
bra zilian</w>
bi otechn
beha vioral</w>
ban ner</w>
ban kru
bal kan</w>
b ber</w>
at tor
as ties</w>
dyn asties</w>
as sed</w>
arist ocrac
appar atus</w>
ap pre
anti sm</w>
an na</w>
al ger
ac ute</w>
ac tivis
ab undan
19 06</w>
18 75</w>
18 53</w>
z y</w>
z u
y og
y lon
wi dth</w>
wel sh</w>
w ad
v ak
v ail
tri dge</w>
tri angle</w>
th ms</w>
ten nis</w>
techn ically</w>
stab iliz
sp ellin
sen timen
sen sati
scri ptur
san itati
sam oan</w>
s wer
rhy thms</w>
re production</w>
re bir
re ar</w>
qu ebe
publ isher
pre servati
pl um
pl ague</w>
per suad
par asi
p ti
ore scen
or tion</w>
or nam
op enly</w>
o ids</w>
o en
no va</w>
n us</w>
n g
n ered</w>
mis tice</w>
m olog
m ca</w>
m 3</w>
le xic
k s
it tin
in ty</w>
ta inty</w>
in ce
pr ince
ic el
gu ided</w>
f te
f ric
ex ha
empir icis
e time</w>
dis pos
di etar
di ences</w>
der ive</w>
de por
d rat
hy drat
d lan
cor rupt</w>
condu ctin
con stra
con cor
commis sioner</w>
commen tat
ci ud
cen tri
cam ps</w>
bu tar
tri butar
bu ckin
bro therhoo
bi ography</w>
bel onged</w>
bab ylon
b am
b ally</w>
au diences</w>
attr actin
arch aic</w>
ar mistice</w>
ar es
ar ances</w>
an swer
aff iliati
aff ects</w>
ad ow
accor dance</w>
a ea</w>
18 64</w>
. 3</w>
z n</w>
z hen
y lo
y i
y cle</w>
wh eel</w>
w righ
var iab
v ak</w>
u it</w>
tu des</w>
tu bes</w>
tr ai
ti al
th eft</w>
t to</w>
sy dne
su tr
stat ut
sp ok
si len
sh ut
sh op</w>
sh eets</w>
se arch
s cy
s cru
resi gnati
remar kable</w>
re mn
re es</w>
protest antism</w>
pre vail
po stal</w>
ph oen
p sh
on gs</w>
on eered</w>
pi oneered</w>
o il
o classic
nic kel</w>
ne oclassic
ne ed
n il
mo ther
lo gis
li vest
li fted</w>
li fer
k har
jun ior</w>
it ol</w>
i at</w>
hi dal
h in</w>
h ance</w>
g writ
son gwrit
g ged</w>
fore ign
fir mly</w>
fer tili
f u</w>
ex tan
es sor
predec essor
er up
er oy</w>
en tre
en li
en hance</w>
empl oys</w>
el ter</w>
el li
e instein</w>
e hou
e hoo
stat ehoo
do zen
dis crete</w>
di ble</w>
di abe
de po
d st
d ded</w>
consti tutes</w>
com pressed</w>
cl ay</w>
cl au
ch uria</w>
man churia</w>
cel lul
cap itol</w>
c p
c f
be ido
be am</w>
b divis
su bdivis
b ble</w>
ar ticul
ar lotte</w>
ch arlotte</w>
ap her</w>
am my</w>
gr ammy</w>
al igned</w>
al ab
a v</w>
a ac</w>
18 38</w>
1 :
y le
y i</w>
x onom
woo den</w>
vic eroy</w>
ven ez
u ta
u orescen
u ff
u ck</w>
tr illi
thro wn</w>
th ar
ta xonom
ta ke
sw immin
sp ot
som alis</w>
sk ys
sin ai</w>
ro bin
reas onable</w>
ran ged</w>
q in</w>
produ ctive</w>
pro lifer
pre mis
pi erre</w>
p ty</w>
os exual
or ium</w>
o tin
nati onaliz
nati onalist
n der
mic roph
mat ernal</w>
ma hā
m u</w>
m bi
le van
le af</w>
l um</w>
k un
k han
in stat
in scription
in forced</w>
re inforced</w>
il lnes
ic opter
i ki</w>
hos tile</w>
hi pp
hel icopter
hap py</w>
ham psh
h mi
gu ist
gi fts</w>
g ö
g ev
g du</w>
fre ew
fran kis
fl uorescen
fil med</w>
f pa</w>
f ences</w>
f ective</w>
ex pir
en sem
en dem
e g</w>
din osaur
dic iar
ju diciar
deter iorat
de signati
cul turally</w>
cal vin</w>
c .
bl ocked</w>
be ta</w>
b re</w>
au then
ar din
an ge
am ber
am az
al ou
al ogu
al ify</w>
qu alify</w>
ac re</w>
ac kin
2 :
19 15</w>
18 57</w>
. 6</w>
z h
y ya</w>
wel ls</w>
ur ities</w>
un fpa</w>
u tor
tr init
ton nes</w>
to bac
ta xati
t san
sur nam
su icide</w>
sin ger
si xte
sh elter</w>
ser van
s nes</w>
ron dissem
ro gen</w>
relati vit
re tired</w>
re side</w>
re sen
re ctive</w>
po tter
no tin
n ow
min eral</w>
mil ls</w>
lou isian
lin guist
len gth
lan dow
l tati
kas hmi
k ri
j up
j et</w>
it un
is odes</w>
is ian</w>
is ab
inter cep
in con
in as</w>
il les</w>
ic ks</w>
i ro
hi stories</w>
g sten</w>
tun gsten</w>
fi fte
fav oured</w>
ev ements</w>
es el</w>
es cor
er ce</w>
ep isodes</w>
en gdu</w>
em pty</w>
em entin
ec umen
e un
dom inic</w>
dis advan
de fec
d marks</w>
lan dmarks</w>
cro sses</w>
consu ltati
con stantly</w>
co ven
ch engdu</w>
ch ea
c ran
bo hydrat
car bohydrat
ben eat
bel ongs</w>
be ver
bat tles
bal anced</w>
bac kwar
b way</w>
b ial</w>
b ha
b divi
su bdivi
b ail
ar rondissem
an scen
tr anscen
am ia</w>
alli ances</w>
al ph
al onia</w>
achi evements</w>
ac tress</w>
a than</w>
a ordin
tr aordin
ex traordin
2 80</w>
2 35</w>
18 50</w>
1 ⁄
1 25</w>
. 9</w>
ç ad
v onian</w>
univer sally</w>
u z
u pl
tur ns</w>
tun nel
tr ends</w>
ti zed</w>
ti sem
tar io</w>
t ty</w>
su dd
st ewar
sou thwar
sin gular</w>
si um</w>
si eg
si di
se au</w>
san ctu
ro zon
ro cke
ri gati
ri dor</w>
relu ctan
proces sor</w>
pro vo
pre fec
po stul
pl ementin
ph ylo
ph onem
per ialis
par amount</w>
p tive</w>
p ta</w>
or ia</w>
op ium</w>
on tario</w>
on se
o yin
o vo</w>
o dy
o ber
o b</w>
ner vou
mor avi
mon itor</w>
mo tivati
mesopot amia</w>
mem ories</w>
mar tial</w>
mar ry</w>
mar ker
mar gin</w>
man chus</w>
mac arthur</w>
m t
m mit</w>
su mmit</w>
la yin
k lan
ir rigati
indi rect</w>
in tly</w>
jo intly</w>
in en
im perialis
im mer
im itat
ic able</w>
i pin
ha zar
h r</w>
ge dly</w>
for tific
fle xi
f ox
eu rozon
es ch
er oke
en id</w>
embe dded</w>
em anci
e ternal</w>
diff usi
d gin
d fa
cor ridor</w>
condu ctor</w>
con ce
col onel</w>
ch oir</w>
ch eroke
ch ange
c rap
skys crap
c as</w>
bu tor</w>
br illi
ben edic
be aches</w>
b b
ar er</w>
appe arances</w>
an ger</w>
an cin
al ive</w>
adver tisem
ad ds</w>
ab dic
a wi
18 97</w>
18 96</w>
18 88</w>
18 69</w>
18 21</w>
17 89</w>
1 19
í as</w>
á n
y mon
y id
y es</w>
x ion
w emble
ver ses</w>
v eg
un relat
un consti
ti ll</w>
ti ag
th day</w>
tex tile</w>
tex tboo
t us
t as</w>
su bway</w>
st ol</w>
sk illed</w>
sec urities</w>
san tiag
s fac
sati sfac
s at</w>
roman esqu
re instat
pro ton
pro cl
pri vati
pra yer
pl ines</w>
pe aked</w>
pat ron</w>
on ymou
o vi
o tel
o ar
nit rogen</w>
n ul
n fl</w>
man itarian</w>
man dar
lin gton</w>
li ga</w>
k us
k avi
jus tifi
j ab
indi rectly</w>
il la</w>
il eo</w>
i hoo
i del
i ah</w>
hu manitarian</w>
hi dd
he gem
har ris</w>
h of
gr ammati
gi ft</w>
ge tab
ve getab
gal ileo</w>
g gin
ff ee</w>
fan tas
ex pul
er ril
gu erril
em pt</w>
em olog
ist emolog
ep istemolog
du cks</w>
do zen</w>
dem andin
de vis
d des
d ak
co ffee</w>
ci plines</w>
dis ciplines</w>
ch amber
cer amic</w>
cam eras</w>
bre ath
bir thday</w>
bic ycle</w>
b ren
au stro</w>
attr acts</w>
at eu
as kin
ar mor</w>
ap pel
an ets</w>
an ck</w>
pl anck</w>
alle gedly</w>
ag mati
pr agmati
ad ron</w>
squ adron</w>
18 82</w>
18 39</w>
18 35</w>
é t
x is
w w
vi ewin
u an
tr ackin
tion aries</w>
ti rac
th od
th mic</w>
th fu
th eo
th ed</w>
t for
sy nap
su stain</w>
stat ues</w>
se eks</w>
s for
ro bial</w>
rhy thmic</w>
re gain</w>
ran kings</w>
r te
propag anda</w>
pro ven</w>
pre ssu
pre cur
pl inar
pl ed
pl anets</w>
ph ones</w>
p p</w>
om as
ol as
o su
o o</w>
o ir
o conferencin
n ges
you nges
mul tirac
mon tre
mic robial</w>
me thod
mar xis
mag nat
m ber</w>
lon git
li me
le tt</w>
kin eti
k re
k as</w>
j u</w>
is oner</w>
pr isoner</w>
is le</w>
iou sly</w>
im pressive</w>
im plementin
il ton</w>
il ips</w>
ph ilips</w>
i gible</w>
hen ri</w>
go ddes
glo bally</w>
gen us</w>
fu ji
fre igh
fra ud</w>
fou nder
for dable</w>
fa çad
f o</w>
ex ter
en da</w>
em itted</w>
el igible</w>
dom inion</w>
dom inati
di rective</w>
den sel
den bur
dem olished</w>
de tac
de stri
pe destri
de oconferencin
vi deoconferencin
d le
d fu
cu ban</w>
cro wned</w>
cre ature
con tam
compar ativel
col ours</w>
ci plinar
ch else
cat alonia</w>
car tridge</w>
car tes</w>
des cartes</w>
car ef
c b
bre aks</w>
bi bli
b mis
su bmis
as ites</w>
ar cad
an wor
lo anwor
an to
an dro
an cel
ch ancel
am ateu
alter natives</w>
ab bo
a it</w>
2 2.
2 1.
18 40</w>
1 05</w>
00 00
z ion
wor se</w>
w ser
w ool
w et</w>
voc ational</w>
vo ir</w>
ven ue</w>
v re</w>
v os
un necessar
u b
tor ah</w>
ti cal
thin ker
th quak
tag onis
t la
t c</w>
sy mbi
su scep
sou ri</w>
sh ells</w>
sch olas
s fi
s cro
s .:
rous seau</w>
ri arch</w>
repe titive</w>
re pai
re op
pro se</w>
pro ached</w>
pre servin
pl ot</w>
par qu
ob stac
o ded</w>
no tice</w>
ni ger</w>
ne tt</w>
ne ares
n load</w>
n c</w>
mis souri</w>
mil ler</w>
mer ger</w>
mar ylan
le tics</w>
kan gxi</w>
k ay
j av
in visible</w>
in take</w>
in dy
in cur
im pressed</w>
ic les</w>
hom ogen
har vest
har sh</w>
ham ilton</w>
h ut
h ac
gu idel
ge ometri
g nmen
si gnmen
f ad
es thoo
pri esthoo
es sed</w>
es cop
tel escop
er ge</w>
en gth
vel ength
wa velength
en dos
en ac
ear thquak
dow nload</w>
dis course</w>
dis ciplinar
dic tionaries</w>
del awar
de fences</w>
cro ss
cri tiqu
contin uit
conta iner</w>
com position
col leagues</w>
cl oth</w>
car eer
bro wser
bri stol</w>
b az
ath letics</w>
at ta
at orial</w>
anti bacterial</w>
an scription</w>
tr anscription</w>
an gles</w>
al sati
al ien
al ge
ag gl
aff lu
af fordable</w>
a ther</w>
a ar
2 4
2 3.
19 26</w>
18 81</w>
18 77</w>
18 73</w>
18 66</w>
18 37</w>
z or
z ep
y zed</w>
way ne</w>
v ore
under taken</w>
un likel
tri dges</w>
tr inal</w>
tor nad
ti ce
t ten</w>
sy non
sy ll
st ol
sp ear
so yu
smo oth</w>
sh eff
sh allo
s ā
s ri</w>
ru bber</w>
re former
re ctin
ra ymon
qur anic</w>
qu arks</w>
pur suit</w>
pu ttin
provis ional</w>
pre sided</w>
pre historic</w>
ph oto</w>
pat riarch</w>
par isian</w>
p n</w>
p .
ou tr
ou nced</w>
orchest ras</w>
or shi
or bit
o ic</w>
o ch</w>
o at
n ir
n an</w>
n .</w>
me than
mar ty
mar ian</w>
mar ble</w>
man ual</w>
m c</w>
loc ked</w>
li gible</w>
lati tudes</w>
l lo
k ar</w>
k ai</w>
jus tify</w>
ju lius</w>
j em</w>
j ag
iz ational</w>
it aris
it ab
intel ligible</w>
in os</w>
in defin
in cep
im provis
ien cy</w>
ic ken
hab itat
h ra
h on</w>
gr aphs</w>
geogr aphically</w>
gen cy</w>
fou rte
fav orable</w>
fam ously</w>
f ow
f le</w>
f ects</w>
ev ille</w>
er sh
en sla
en otyp
ph enotyp
en do
ei ghty</w>
ec li
ec hos
e em</w>
e der
du bl
doc trinal</w>
dis sen
di zati
di esel</w>
del iver</w>
cre ek</w>
cou ntin
cor relat
contin uati
con ut</w>
con servat
com mit</w>
co conut</w>
chie fly</w>
ch ips</w>
can non</w>
bo xes</w>
be aten</w>
b n</w>
b ist
ath eis
arist otel
ap proached</w>
anti och
anal ogu
an sfor
tr ansfor
an scri
tr anscri
an le
st anle
an don</w>
am ined</w>
ex amined</w>
air borne</w>
aff ectin
ad ay
now aday
ab oar
ab dom
2 30</w>
2 20</w>
18 95</w>
18 79</w>
18 63</w>
18 36</w>
18 14</w>
ɑ ː
ç ois</w>
v y
ul arly</w>
u ly</w>
u ctu
to xic
ti min
ti mber</w>
ti dal</w>
ther nmos
t num
t fu
sp annin
ser ge
s sr</w>
s na
s ke
s .
ro ger
ric hes
rele gat
re tire
re conqu
par kin
p va</w>
p se
ou tnum
organ izational</w>
or ogen
o sive</w>
pl osive</w>
nor ance</w>
no tice
ni zati
n stream</w>
n lo
n l</w>
mor ris</w>
me tri
mar ck</w>
ma jor
m ā
m mon
le thal</w>
l s
l ls</w>
l has
k ul
k it</w>
jon athan</w>
in verte
in tac
in ade
ig norance</w>
ic kin
i vis
i day</w>
hol iday</w>
hi ps</w>
he gel</w>
hap pen</w>
gu istics</w>
lin guistics</w>
fran çois</w>
for tress</w>
for tifi
fle ein
fl uctu
fin alist
fi erce</w>
ex pon
est onian
er aliz
en vis
en um
en ues</w>
en gra
en ber
empl oyin
em inen
em ies</w>
em erge</w>
em enid</w>
ec if
sp ecif
e brit
dow nstream</w>
dow nlo
dis pen
de tri
de ad
d í
d tow
mi dtow
d op
d man</w>
d j
d ha
d ger
cz echos
con ces
cl ashes</w>
ch be
tor chbe
cel ebrit
cas tile</w>
cal ip
bu yin
bu tter
bl essed</w>
bis marck</w>
bis exual</w>
ber kel
bar dmen
bom bardmen
b rati
b iti
av enues</w>
at tained</w>
at ch
as sify</w>
cl assify</w>
an ta</w>
an at
am ended</w>
am en</w>
al lin
al fon
af ro</w>
addre sses</w>
acha emenid</w>
ab olition</w>
ab andon</w>
ab ak
kar abak
4 50</w>
4 0.
2 7.
2 4.
2 3
18 90s</w>
18 62</w>
18 56</w>
18 12</w>
ü r
y u</w>
y stem</w>
y lis
vi brati
v as</w>
v ap
ur red</w>
un ve
un common</w>
un accep
u g
tre sses</w>
tr uly</w>
tr ait</w>
tor onto</w>
ti tor
ti ff</w>
ti en
ti cin
th pl
th ian
st ylis
shi ftin
se af
s les
s cu
ri oti
reser voir</w>
re per
re cap
rati onalis
pre ceded</w>
po tat
pat rioti
par tition
p tiles</w>
re ptiles</w>
p is
ou ds</w>
oc co</w>
o ec
o din
no ver</w>
no tion
n ce</w>
mor occo</w>
man ia</w>
m is</w>
la you
k v</w>
k ro
k ra
k le</w>
k ev
it ou
is aac</w>
ir med</w>
im iz
min imiz
i k
i atur
min iatur
han dfu
h yp
h able</w>
g then</w>
stren gthen</w>
fin nis
fer ry</w>
fem inis
fe asi
ex plosive</w>
ex empt</w>
est eem</w>
equ ator</w>
en os</w>
em ption</w>
em onies</w>
em bo
em aic</w>
ptol emaic</w>
e wel
e po
e c</w>
du ck</w>
dis ruption</w>
d win
d wan
d sli
d di
countr yside</w>
cor rectly</w>
cor nel
con ve
compan ion
com pel
com bat
cl ouds</w>
chron icle</w>
ch im
ch icken
cer emonies</w>
car tridges</w>
cam pus
ca ster</w>
c at</w>
c ag
bir thpl
b yp
b bin
avi olet</w>
ultr aviolet</w>
appo intin
ap pen
am eral</w>
al uat
ev aluat
al ga
aff irmed</w>
ad uati
gr aduati
5 50</w>
4 5
18 94</w>
18 58</w>
18 51</w>
18 33</w>
1 0s</w>
. .</w>
ə ˈ
x e</w>
wil hel
wi ves</w>
war ned</w>
w ds</w>
vi vor
ver sa
u cks</w>
tur mo
tu ition</w>
tu alis
to ky
ti mo
ti mel
ti cket</w>
th atch
tex tiles</w>
ter ium</w>
t ad
sur vivor
si erra</w>
se ded</w>
super seded</w>
s se
s alis
ri fle</w>
ri din
ri arch
qu ially</w>
pri zes</w>
pre ju
pit ts
photo graphy</w>
per gam
par asites</w>
p se</w>
ow cas
sh owcas
or ten
or ence</w>
on dri
ob servat
o vati
o it</w>
o e</w>
nor ms</w>
nati vel
n table</w>
n em
n ak
mu awi
mor gan</w>
moder nizati
min gha
men ted</w>
mar cus</w>
man ned</w>
m le</w>
los sy</w>
lo quially</w>
l lab
kar map
k om
k for
is her</w>
instru cted</w>
in efficien
in eal</w>
il ty</w>
il lan
il iar
i gh</w>
hom osexual
har dly</w>
h man
gro ws</w>
gran dfa
gon dwan
fur nit
fl orence</w>
f ev
ex plicit</w>
ex ca
es ticati
es pn</w>
es man</w>
es day</w>
er on</w>
er man</w>
er gi
encou nter</w>
en ergi
en de
em bro
ec ify</w>
sp ecify</w>
ec ially</w>
sp ecially</w>
e ed
dre am</w>
dom esticati
diff ered</w>
di fy</w>
di ents</w>
de von
de bts</w>
d woo
d den
d ap
cro wds</w>
cor ner
contin uum</w>
compe titor
col oured</w>
col loquially</w>
civil isati
ch ees
c ed
bor rowin
bir mingha
bil ateral</w>
bac terium</w>
b u</w>
au gmen
at ra</w>
at op</w>
at om</w>
as sy
as signmen
ar thei
ap arthei
an ywh
an gha
sh angha
an dr
am us</w>
am id</w>
al em
ag enda</w>
ad ha</w>
ac tically</w>
2 6.
18 84</w>
18 74</w>
18 49</w>
18 46</w>
1 18
' re</w>
& t</w>
é lem
z ies</w>
y un
y stem
y os
wor lds</w>
war time</w>
w re
vi gor
ven eti
val id
ur ged</w>
un popular</w>
um ph</w>
tri umph</w>
tr ucks</w>
th ia</w>
ten egr
tan cy</w>
su dden
st war
st les</w>
st anti
sp ots</w>
sp innin
si ber
sh orten
sen ses</w>
sa vings</w>
ro ch
ri gi
re me
re designed</w>
pr ague</w>
pr actically</w>
por tlan
por aries</w>
po intin
pl icable</w>
par tition</w>
p r</w>
p men
ow sk
over sigh
over lap
ou tsk
os cil
or lan
op tics</w>
on es
om erati
och ondri
o yer</w>
o idin
o du
nor mal
ni kol
mus ée</w>
mus ician</w>
mul titu
mou ntin
mon tenegr
mir acle</w>
mi um</w>
men zies</w>
me dal
ma ker</w>
m ü
low ered</w>
li sten</w>
le tes</w>
lan dsli
k ya</w>
k up</w>
k grounds</w>
j ai
j .
it ne
wh itne
is ma
inter rupted</w>
in ver
in sufficien
il ia</w>
ic anis
i olog
i ji</w>
hy dra
h vil
gu ilty</w>
g st
ex traction</w>
ex odu
ex emption</w>
er osi
er eo
st ereo
er ci
em mle</w>
ecos ystem</w>
ecos ystem
e oto
th eoto
dra fted</w>
dic tator</w>
dec entr
de pleted</w>
dar ker</w>
d yin
cu bist
cop ied</w>
conver sati
contem poraries</w>
cas cad
c f</w>
bar rels</w>
bac kgrounds</w>
b mit</w>
su bmit</w>
av oidin
at &t</w>
ar ked</w>
ar io</w>
ar ehol
sh arehol
ar do</w>
ap olog
an te</w>
an ag
am pu
am ph
am eter
par ameter
am biti
al toge
ac tition
pr actition
8 50</w>
3 20</w>
18 99</w>
18 59</w>
18 20</w>
' ve</w>
î le</w>
è re</w>
y ue</w>
y emen</w>
x ian
war ships</w>
war mer</w>
wal lac
w ished</w>
w i</w>
w castle</w>
ver sa</w>
ven dor
us able</w>
ur us</w>
under go</w>
un sw
un stable</w>
un co
tri ps</w>
tr acts</w>
ti mon
ti mac
ti gu
th élem
th under</w>
th ies
th ai</w>
tes timon
t fol
sy llab
subsi stence</w>
st arch</w>
sp eed
simil arit
si din
sh ots</w>
sh eep</w>
sh adow
s ca
ru ptur
re vit
re developmen
re cur
r teenth</w>
r ally</w>
pu ber
pop ularly</w>
po theti
pl oit</w>
pl ementar
per forms</w>
pat ented</w>
par ishes</w>
par allel
p it</w>
ou tla
on tolog
on taneou
sp ontaneou
on ialis
ol ve</w>
o van
o i</w>
nes ota</w>
ne wcastle</w>
ne pal
ne gl
nas hvil
nac ional</w>
n ts
n tab
mol oto
mo des</w>
mit ochondri
min nesota</w>
mi dni
mer cy</w>
mel odi
m gm</w>
lu crati
li ftin
les son
les bian</w>
la hor
la emmle</w>
l vi
l m</w>
k ok
k lin
k k
jus tific
j ian</w>
j ew</w>
j al
ir regular</w>
im ply</w>
iden tities</w>
ic ted</w>
ic il
ic ants</w>
pl icants</w>
i ow
i go
hy potheti
hol id
hi mal
h p</w>
gran dson</w>
gni zes</w>
reco gnizes</w>
gi ants</w>
gh teenth</w>
gen ius</w>
gar nered</w>
g ch
fou rteenth</w>
ex ploit</w>
ever ywh
ev olve</w>
er fur
er ad
en ev
wh enev
en eur
pr eneur
entre preneur
empl oyer</w>
ei ghteenth</w>
ec tives</w>
ea stwar
e olithic</w>
dis cer
dis ban
din gly</w>
dictat orshi
di rectin
dec can</w>
de von</w>
de fects</w>
d lor
lan dlor
d ain
d ad
cur sive</w>
cra ig</w>
contri butes</w>
contin ually</w>
con stanti
con sor
con ju
com plementar
col lis
co il</w>
c c
bur den</w>
bran denbur
br unsw
bo ast
bar thélem
ban gl
b strat
su bstrat
b se
ath letes</w>
at las</w>
ap plicants</w>
anti gon
anal yti
an gol
an ab
al thies
al la
al if
qu alif
ag shi
fl agshi
ag ne</w>
accor dingly</w>
ab du
a wa
a um
a on
6 50</w>
3 0.
2 5.
18 24</w>
18 10</w>
17 62</w>
ç a</w>
z ag
y cl
wh ig</w>
we althies
w ound</w>
w k</w>
val idat
v ā
v gor
ur anus</w>
un dance</w>
u o</w>
tu ents</w>
ti fies</w>
thor ough
th am</w>
ter rac
ter no
tec ton
te ut
surve illan
su gar
st un
st ings</w>
st ined</w>
st aff
so dium</w>
slo vak</w>
si zable</w>
si us</w>
si le
si kh</w>
s man</w>
ric anes</w>
ri qu
ri gor
ri el</w>
re vo
re sses</w>
st resses</w>
re marked</w>
re gre
r ö
r f</w>
qu ie
qu ay</w>
publ isher</w>
propri etar
pre achin
pol yph
pl ug</w>
pi vo
pen tec
pat ernal</w>
par ental</w>
p ist
p ic</w>
p ar</w>
over loo
ou tri
on ogr
ph onogr
om eter</w>
ol ly</w>
ob servin
no vgor
no ticed</w>
n bc
man kin
man ga</w>
mac boo
m r
m fu
li vel
li gn
le ap</w>
l le</w>
k pl
jac ob</w>
j est
it aril
mil itaril
is ings</w>
insu lin</w>
ingre dients</w>
in formally</w>
ic onic</w>
i ón</w>
i vi
i meter</w>
per imeter</w>
i et</w>
i en</w>
i dar
hur ricanes</w>
har mfu
han gzho
h ex
g w</w>
fi del
f rat
f ras
f ants</w>
in fants</w>
exper tise</w>
er bat
en ta
em pli
ex empli
e bri
e br
e able</w>
den tally</w>
de ut
de stined</w>
de signin
de af</w>
d wat
d ron
d ho
cos molog
consti tuents</w>
con scription</w>
con den
col onialis
co inag
co her
ch rome</w>
ch iat
psy chiat
ca stles</w>
c on</w>
c ay
bu enos</w>
be sieg
b ital</w>
b ic</w>
b du
su bdu
aus pic
at ter
ap se</w>
ap orati
ev aporati
anal yzed</w>
an st
al ties</w>
pen alties</w>
al ter</w>
af terno
ac uati
ev acuati
ac itance</w>
cap acitance</w>
ac erbat
ex acerbat
ab undance</w>
3 8th</w>
20 20</w>
18 91</w>
18 85</w>
18 67</w>
18 50s</w>
17 76</w>
1 17
z ur
z t</w>
z hi</w>
y ses</w>
y ne
y la</w>
y eas
wor ker</w>
w l</w>
vi able</w>
upr isings</w>
un dis
ul aris
u ña</w>
u ster</w>
u e
u cos
u bi
tu aliz
tr am</w>
tr alis
ti ca</w>
ten tati
ten se</w>
ta iw
t ts</w>
t si
t man</w>
t ear
sur plus</w>
stri aliz
sti ck</w>
stat utor
sp ur</w>
simul taneou
si onis
sha kes
sh ea
sem anti
secretar iat</w>
s so
ro ws</w>
ro mati
ris ky</w>
ri ble</w>
resp ected</w>
ren ovati
re ten
re tch</w>
st retch</w>
re tal
re pressi
re pli
re pair
re lyin
re ig
re hab
re dun
r ge
qu iet</w>
q a</w>
proces sor
pre fi
po eti
pi pe</w>
per cus
pe tition</w>
pal eolithic</w>
p i</w>
or phi
or iou
or dain
or as</w>
or acle</w>
oo dy</w>
on nes
op onnes
pel oponnes
ol ingi
o v
o cen
o bl
o bacteria</w>
nor thwar
nor te</w>
nor se</w>
ne gr
n ically</w>
mu tualis
mor ris
mo zar
mo od</w>
mo ist
mir ror
mar ines</w>
mar ie</w>
mac hus</w>
ma jest
m l</w>
m bs</w>
lis zt</w>
li min
li metre
mil limetre
li fic
lem agne</w>
lan ka</w>
lan caster</w>
l fi
l al
k ak
jian gs
it arian
is ur
le isur
is is</w>
is hable</w>
inter view
inter im</w>
indu strializ
in effective</w>
in da</w>
in cap
im pair
il road
ra ilroad
il ly</w>
i fa</w>
i der</w>
i bri
il ibri
ha wk</w>
h ugh</w>
h og
h f</w>
h ch
gro ssin
gl ucos
gl asses</w>
gen uin
g ear
g ay
fil aments</w>
fal sifi
f ati
expec tancy</w>
eth nically</w>
er es</w>
ep ith
en ni
en ings</w>
em ai
el eph
e tal</w>
e bl
e am
dr illin
distri bute</w>
di gn
di ets</w>
d' ét
d wes
mi dwes
d din
d d</w>
d ai</w>
con tigu
col lateral</w>
cen tralis
car olingi
can yon</w>
can onic
cal li</w>
cal ib
c ry</w>
c ked</w>
bu dge
bro s.</w>
bro ok</w>
bra hman</w>
bou nded</w>
bo dil
bl oody</w>
bal ls</w>
bag hd
az im</w>
at forms</w>
pl atforms</w>
as hed</w>
as cus</w>
dam ascus</w>
ar rin
st arrin
ar lemagne</w>
ch arlemagne</w>
anti och</w>
annou ncin
anal yses</w>
an gular</w>
an gev
an gel</w>
an as</w>
am ne
am mun
al ig
aggl omerati
ac tised</w>
pr actised</w>
ac clai
a j
18 92</w>
18 86</w>
18 83</w>
18 60s</w>
18 47</w>
18 29</w>
17 91</w>
1 06</w>
y tes</w>
y alis
x vi</w>
x el
x a</w>
wh olly</w>
w yer
w suit</w>
w su
w ak
vi us</w>
ver tically</w>
v ue</w>
v hs</w>
v au
under gon
uncer tainty</w>
un limit
un anim
u ff</w>
tu ck
tre ble</w>
traff ickin
tr ak</w>
to tally</w>
tin ational</w>
t yn
t sch
t lem
t alis
su lfi
su bse
st ortion</w>
st men
st eam
sp ectives</w>
sol idar
sh erman</w>
sa kya</w>
s men</w>
ru mou
ro oted</w>
ro organisms</w>
ro of
re tin
re ef</w>
pur ific
pro kar
por ts
pl ut
pi xel
per fective</w>
pat riarch
par thian</w>
par adi
pac ket</w>
p ter
p press</w>
su ppress</w>
p per</w>
p pe
ou rit
os pac
or ial
on iki</w>
thessal oniki</w>
ol iti
ob tainin
o vat
o tes</w>
o on
o an
n st</w>
n hl</w>
mus eo</w>
mul tinational</w>
mo tto</w>
mo dify</w>
me ets</w>
man pow
mal ta</w>
ma yor
le ón</w>
lab elled</w>
la wyer
la wsuit</w>
la wsu
l g
ken tuck
k eu
j pu
ra jpu
j el
it em</w>
it ain
is tically</w>
is ps</w>
inter change
in ric
in fam
in expen
in cu
im pur
il ly
il itati
il ds</w>
ic ler
ic ken</w>
i ka</w>
i fa
hi ber
h stan</w>
gu el</w>
mi guel</w>
gra zin
go tten</w>
gni zable</w>
reco gnizable</w>
gen eraliz
gan dhi</w>
g sh
g fu
fro zen</w>
for ci
fin ger
fi xtu
fai thfu
f oil</w>
f ay
ev anst
et ym
er ted</w>
er ni
er lin
equ ilibri
en tally</w>
en cir
en ced</w>
ec tat
sp ectat
e us</w>
dom inion
dis placem
differen tial</w>
di stortion</w>
di ph
di ode</w>
di git
de vol
de ir
de fi
de adlin
d ler</w>
d his
cre ws</w>
cou sin</w>
cor uña</w>
contr acted</w>
con ifer
com po
ci us</w>
chron icler
ch ore
cen dan
des cendan
c ron
c ac
bu ck
bou rs</w>
neigh bours</w>
bou rge
bo dhis
ber ry</w>
battles hips</w>
bas ically</w>
b é
b bon</w>
b ath
ashken azim</w>
ar us</w>
ar thro
ar ta</w>
ar min
ar kansas</w>
ar ith
aqu inas</w>
ap plicable</w>
an go</w>
am trak</w>
am inin
al uati
ev aluati
al kal
ak hstan</w>
kaz akhstan</w>
ad mixtur
ad jec
4 :
3 30</w>
3 000</w>
18 87</w>
18 68</w>
17 90</w>
17 57</w>
. 0</w>
z ar</w>
z ak
y āna</w>
y n</w>
y as
x ian</w>
wor kfor
wh oles
we ek
wat ersh
w u
w ants</w>
ven erati
variou sly</w>
v or</w>
v eti
ur iti
ur du</w>
under take</w>
un official</w>
un ded</w>
u tives</w>
tw ist
ti us</w>
thal amus</w>
th ys</w>
th ier</w>
ter bur
te thys</w>
t ular</w>
ti tular</w>
t se
susp ensi
su tt
stri alis
st inian</w>
sol ete</w>
so dy</w>
si de
shi pmen
sh ru
s é
s ar</w>
ron esi
ron calli</w>
ro gat
rap ped</w>
qu ial</w>
pro ves</w>
pre sidin
pre cep
pre acher
pl anted</w>
photo graphs</w>
ph oton
per spectives</w>
pe dro</w>
pac kar
p iz
os la
ore mention
or is
op timi
op edi
on au
ob solete</w>
o tro
o tive</w>
o .</w>
ne vad
ne br
nag ui
n dro
sy ndro
n c
n ath
n ail
n .
mo des
mic roorganisms</w>
mic ronesi
mi thri
mi dna</w>
men tor</w>
me tam
man ually</w>
man tle</w>
mag adha</w>
m um
m s
lo quial</w>
lo gy</w>
li pi
li aments</w>
par liaments</w>
le vi
le ib
le ather</w>
lam inat
l t
kan ye</w>
k ed
jam aic
j p</w>
j on</w>
is ia</w>
tun isia</w>
inter nally</w>
indu strialis
in vo
in scription</w>
in cum
in ally</w>
iden tifies</w>
i vel
is ivel
i ff
i ards</w>
i ac</w>
hum id
he inric
h ô
h á
h no</w>
tec hno</w>
h ep
group ings</w>
gro unded</w>
gi ovan
gh tnes
gel ug</w>
gan gli
ga wa</w>
g led</w>
g is</w>
fundam entally</w>
fer tilit
fav ourit
f da</w>
f cc</w>
ex position</w>
ex aminin
eu tical
pharmac eutical
er ly</w>
er ion</w>
er eo</w>
st ereo</w>
empha sizes</w>
em ia</w>
el les</w>
el ic</w>
ed gar</w>
ec ute</w>
ex ecute</w>
e typ
e per
e ber
du alis
dom inic
distingu ishin
distingu ishes</w>
dis rupt</w>
dis order
di ac</w>
den ounced</w>
defic iency</w>
dan ube</w>
d wic
d po
d h</w>
crit erion</w>
cri ption
des cription
cor relati
condu ctor
condu ctivit
con notati
com plicati
col loquial</w>
co operat
co gn
cl uster</w>
cl opedi
ency clopedi
ch uan</w>
wen chuan</w>
ch icken</w>
cen aries</w>
mer cenaries</w>
cel ebri
c u</w>
c rat
bo ardin
bi omas
bel arus</w>
b species</w>
su bspecies</w>
b bi
b b</w>
at tainmen
at les</w>
be atles</w>
at ar</w>
as ym
as ka</w>
nebr aska</w>
as go
gl asgo
ar red</w>
st arred</w>
ar ply</w>
sh arply</w>
aqu itain
an iards</w>
sp aniards</w>
an gr
an gan
tel angan
an bu
ist anbu
am bul
al ic
al er</w>
ag inati
af oremention
aer onau
adju stmen
ab les</w>
6 40</w>
18 93</w>
18 32</w>
18 25</w>
17 96</w>
17 95</w>
17 88</w>
17 50</w>
1 16
1 08</w>
í s</w>
é col
z hon
y fal
y body</w>
y bal
wor kpl
wh ip</w>
wer ies</w>
w yer</w>
w o</w>
vi vi
ver ifi
v c</w>
v ai
ur gy</w>
up anis
un ton</w>
un aspir
u ts</w>
u ck
u ch</w>
u ar</w>
tu esday</w>
tr af
top ography</w>
tion alis
ti lati
ti ger</w>
thor ax</w>
ter sbur
tel ls</w>
ta unton</w>
t zin
t ten
su mmon
su lla</w>
su lfu
sti cis
standar dizati
sp urred</w>
sp elled</w>
sp aw
so ap</w>
sk yfal
sin gton</w>
simp lific
si blin
sequ encin
san dwic
s ad</w>
rus hch
ru dol
ro ugh</w>
ro bo
ren ovat
re structur
re mit
re combin
rati os</w>
r nin
qur 'an</w>
pu pi
pu ebl
produ ctivit
pol len</w>
pil oted</w>
pi pel
ph yla</w>
per former</w>
pe tersbur
pas ha</w>
pan ga
p per
p aus
ou ts</w>
ou se</w>
ou ren
other mal</w>
os car</w>
or um</w>
or ges</w>
or do
op ted</w>
on sor</w>
sp onsor</w>
om eg
ol vin
ol iver</w>
o z</w>
o ves</w>
o ven</w>
o itati
pl oitati
no tor
no graphi
n wal
n se
my sticis
mou rnin
mil ton</w>
mel inda</w>
me tz</w>
mar ker</w>
man ist
mal aria</w>
mahā yāna</w>
ma keu
m t</w>
m ab
los sles
lit urgy</w>
li ver</w>
li um</w>
li ked</w>
le ybal
vol leybal
l u</w>
l po
kh rushch
ken sington</w>
k way</w>
k hal
k adi
it ual
is pru
jur ispru
ir us</w>
ir itual
sp iritual
inter val
incom plete</w>
in tan
in mat
in ab
im manuel</w>
ic op
ic iz
i om
hy dri
hu manist
hu go</w>
hel veti
h tr
go tt
gi bil
gh te
gen eal
ge orges</w>
gam blin
fo stered</w>
fin ances</w>
fi xtur
f r</w>
ex tracted</w>
ex changes</w>
ev olvin
er ta</w>
er oti
en lan
gre enlan
em it</w>
ei ghte
ec utives</w>
ex ecutives</w>
ec ube</w>
gam ecube</w>
e us
e ta
e fir
e au
dur bar</w>
dow ns</w>
dis order</w>
dis inte
differen tiati
di odes</w>
destro yer
dem etri
dec isivel
de vil
de du
d wal
d run
d is</w>
d air
cor nwal
consu ltan
con vo
con cur
co difi
cl ones</w>
ceas efir
can terbur
can non
campai gnin
cam eron</w>
ca stro</w>
c tance</w>
bu tor
bri ghtnes
bre weries</w>
bil ingu
bap tized</w>
bab yl
b scription</w>
su bscription</w>
b able</w>
attri bute</w>
ati se</w>
tre atise</w>
at orium</w>
ar yan</w>
ar tisan
ar ium</w>
ar ded</w>
anal yst
an se
an nic
an dis
an dal
an arch
am mat
al uk
ch aluk
aer ospac
advan cem
ad mit</w>
ac claim
a ul
a '
: 1</w>
8 s</w>
8 9.
7 3.
5 9.
5 0
3 80</w>
20 17</w>
20 10s</w>
2 9.
2 70</w>
18 42</w>
18 31</w>
18 07</w>
16 44</w>
1 12</w>
ι κ
α ν
ā n</w>
z ü
z am</w>
y te</w>
y ac
x is</w>
war rin
war lor
war ehou
un inten
un equ
un desirable</w>
un cle</w>
um bre
ul ted</w>
tro uble</w>
tri gger</w>
tr ap</w>
to tten
ti tan
ti de</w>
thro win
t pl
t ev
stri pp
st war</w>
st up
st uar
st moder
st ef
sp inal</w>
sp arked</w>
sol idi
smal lpo
si zin
si fyin
sh aria</w>
sen sor</w>
sel ectin
se pta</w>
s wal
s se</w>
ro wly</w>
ri ka
ri dges</w>
ri bbon</w>
re ll</w>
re et
st reet
re ef
ran za</w>
ral ph</w>
r u</w>
qu tb</w>
pur ifi
publ ishes</w>
pu ppe
pro voc
pro secution</w>
pre limin
pos thum
por fi
po stwar</w>
po stmoder
pl oid</w>
pl etin
photo graphi
ph yl
person alities</w>
pe tty</w>
pe tition
par tite</w>
par tisan
p cbs</w>
p bel
p at</w>
over thrown</w>
ou fl
os man</w>
or ro
or no</w>
or io
om ic</w>
ol itan</w>
off enses</w>
o ter
o der</w>
ni zam
ni vor
ne ph
nar rowly</w>
n um</w>
n u</w>
n im
n ai
mol lus
mo dy
mel ody</w>
marke tpl
ma har
m war
m hz</w>
lo vak
lic enses</w>
legi timac
le gal
lat ure
legis lature
kn uck
k im
k ic</w>
k hor
k fur
jud ah</w>
ju stinian</w>
john ny</w>
j ar</w>
it om
inter val</w>
inter mit
inter marriag
inter connec
in timat
ien cin
ic eles
i z</w>
i va</w>
i gs</w>
hel icop
har dwoo
han ically</w>
mec hanically</w>
h at</w>
h 2</w>
h .
gr asses</w>
ge othermal</w>
g mati
g hi
g ai
fre ddi
fran kfur
foo tag
fl ux</w>
f t
exper iencin
excel lence</w>
ex ploitati
es say</w>
es hi
er og
er nst</w>
er discs</w>
las erdiscs</w>
er as
ep itom
el din
ec lec
du plicati
dro pou
dre ssed</w>
di us</w>
di gest
di dac
di alogu
depl oy</w>
d n</w>
d .
czechos lovak
cy cli
cu bin
cri tically</w>
cra zy</w>
contri butor</w>
con sin</w>
wis consin</w>
con ges
con cubin
commu tator</w>
com pletin
cle anin
ci ds</w>
ch andis
mer chandis
ch ad</w>
car ranza</w>
car nivor
car efu
cam pbel
cam oufl
bu gs</w>
bel ls</w>
be th</w>
be stow
be side</w>
be dro
bal lad
b ver
su bver
b son</w>
b red</w>
ati ses</w>
tre atises</w>
ati onis
at so</w>
gy atso</w>
at ri
ar mou
ar mor
ar dwal
bo ardwal
ap ologi
anti microbial</w>
an dh
am mon
am ines</w>
al gam
am algam
ag ued</w>
ag rees</w>
af rika
acad emies</w>
ac les</w>
ac credit
ab ia</w>
a os</w>
6 10</w>
3 d</w>
3 0
2 56</w>
2 10</w>
18 70s</w>
18 44</w>
18 40s</w>
18 34</w>
18 22</w>
18 08</w>
18 01</w>
18 00s</w>
17 83</w>
17 75</w>
15 82</w>
10 80
1 09</w>
ṇ a</w>
λ λ
ə n</w>
í n</w>
è qu
z un
ye ez
y tical</w>
y su
y boards</w>
x em
w kin
vi ves</w>
vi kin
v re
us cul
ur able</w>
under too
un reli
un fortun
un dwat
un consci
tur kic</w>
tre asure
to ku
ti mu
ti ger
thir teenth</w>
ther ia</w>
th ar</w>
termin ator</w>
ter ry</w>
te eth</w>
t gom
su med</w>
sti pul
st yl
st orio
st ok</w>
vo stok</w>
st es</w>
st eep</w>
si lence</w>
scul ptu
sati sfi
s ī
s wel
s room</w>
s factor
sati sfactor
s den</w>
s day</w>
s cl
s ch</w>
ru mor
ro pa</w>
ro econom
ril ineal</w>
ri dic
refl ection
re v.</w>
re un
re sign</w>
re pr
re ds</w>
re ck
pro ton</w>
pregn ancy</w>
por tfol
pon tiff</w>
pin nac
pen icil
pec hen
p son</w>
p pressi
p ei
p buildin
shi pbuildin
ou tw
on at
o ved</w>
nom inally</w>
no ctur
ni zam</w>
ni fer</w>
ne wes
ne sium</w>
n af
my stical</w>
mor atorium</w>
mon tgom
mon oth
minist erial</w>
mic hel</w>
mi tigat
mi dlan
metal lur
men dou
tre mendou
mac au</w>
m ber
loc aliz
lo bb
lit eral</w>
lin gn
likel ihoo
lat ew
la wyer</w>
l ut
ku bla
kil ometr
k hy
k hol
k he
k bit</w>
jen nifer</w>
j ef
j ak
iti sm</w>
it os</w>
ir regul
incen diaries</w>
in nes
in ction
st inction
in accur
il la
il der</w>
il der
il anthro
ph ilanthro
ic tin
ic ameral</w>
un icameral</w>
i ju
hu bs</w>
hon ours</w>
hi storio
hel io
har vey</w>
har per</w>
h re
gu itaris
gu innes
gro undwat
go vin
gl oriou
gi bson</w>
gi ance</w>
gh ton</w>
g g</w>
g c
fi bre
fer mentati
f ts
f teenth</w>
fi fteenth</w>
f .c.</w>
ex it</w>
eu ropa</w>
eu cus</w>
sel eucus</w>
eu cids</w>
sel eucids</w>
eth nographi
es tically</w>
er ry</w>
er id
er able</w>
equ atorial</w>
ep irus</w>
en tal
en nes
en cer</w>
em ingly</w>
se emingly</w>
el ton</w>
el la
el ean
e ta</w>
e ke
e h</w>
e gs</w>
e der</w>
dom estically</w>
doc ky
disast rous</w>
dis siden
dis agreem
di stinction
de vonian</w>
de ten
d ʒ
d wor
d way</w>
mi dway</w>
d re</w>
conven ience</w>
con gl
col des
co he
co erci
ci um</w>
ch oral</w>
ch arities</w>
c n
bu bble</w>
brit annic
bil ee</w>
ju bilee</w>
bi gger</w>
bel lum</w>
be kist
uz bekist
b group</w>
su bgroup</w>
b as</w>
at em
as sroom</w>
cl assroom</w>
as ma</w>
ar mam
ar ius</w>
ar enab
ar di</w>
anal ytical</w>
an tive</w>
subst antive</w>
alle giance</w>
al lu
ak kadi
ag ger
adul thoo
ac io</w>
ac hu
ac et
ac el
ab dul
a a
4 80</w>
4 30</w>
3 7.
2 60</w>
2 4th</w>
18 45</w>
18 43</w>
14 53</w>
1 18</w>
1 15</w>
1 13</w>
.. ..</w>
ἀ π
ا ل
ό ς</w>
ze govin
z im
z ig</w>
z ards</w>
y k</w>
y as</w>
y ak
y .</w>
x wel
x en
wor ksh
win chest
wil lingn
wi do
wel lington</w>
wal ker</w>
w ü
w t</w>
w lin
w ks</w>
vo iceles
vis ually</w>
vic init
vi bran
ur alis
un avail
u v</w>
u pri
u egr
u bl
u ad
tro ubl
tri partite</w>
tr ay</w>
tr aver
to kavi
ti mis
thur sday</w>
ther mody
th hol
wi thhol
th es</w>
ten ants</w>
t r</w>
t .
system atically</w>
sur vives</w>
st air
sp ru
sp encer</w>
som etime</w>
sin dh</w>
sh river</w>
sh atter
se bas
scri pted</w>
s v
s q
s p</w>
s national</w>
s mu
s lu
s asso
ro ss
ro pes</w>
ro ds</w>
ri ad</w>
resem blan
reli eve</w>
redu ction
reac tance</w>
re yn
re writ
re producin
re lin
re igned</w>
re cl
ran ger
ran do
r illi
queen slan
qu itou
ubi quitou
pun jab
pu mps</w>
pro ud</w>
pro fic
pro bable</w>
pro achin
pre view</w>
pre tin
pl uralis
pl ot
pl ishmen
pl asma</w>
pl agued</w>
per sec
pec uli
par kway</w>
par achu
p v</w>
p ian</w>
p bs</w>
p ally</w>
p ad</w>
p ab
ox idi
ou rable</w>
ou cest
or us</w>
or bital</w>
onmen tally</w>
ol eu
oc ampu
ob viously</w>
o val</w>
o ist
o group</w>
pl ogroup</w>
o da</w>
o ad
ni fic
ni bal</w>
nag orno</w>
n fal
n aissance</w>
recon naissance</w>
my riad</w>
mon te</w>
mon day</w>
mo gad
mis sed</w>
min uscul
meanin gfu
me dre
mar io</w>
mar iju
mag nific
mag nesium</w>
ma deir
m ns</w>
m mag
scri mmag
m .
lu go</w>
loc kou
lo gn
lo bby</w>
li graphy</w>
lan dings</w>
l ä
l men
l li
l der</w>
kin shi
k em
j ain
it ter</w>
is onmen
inter pretin
insi stence</w>
incl usive</w>
in ol
in hal
in appropri
impr isonmen
im itati
im aginati
ic enter</w>
i ć</w>
i vin
i ol
i du
hy mns</w>
hu erta</w>
hipp ocampu
her zegovin
han nibal</w>
han dles</w>
ha stings</w>
h le
gu atem
gl oucest
g wu</w>
g qin
on gqin
g it</w>
fu jian</w>
fran ca</w>
for ensi
fla vou
fl uen
fes tivi
fe ast
ex pi
ex oti
es ses</w>
er un
er ts</w>
er ings</w>
er indi
ep icenter</w>
envir onmentally</w>
en vo
en tri
en er</w>
en dar
en ce
en as</w>
em itter</w>
el fth</w>
tw elfth</w>
el as
ed win</w>
ed ra</w>
e ze</w>
e to</w>
e jec
du bi
dow nfal
dis regar
dis cover</w>
dis charge</w>
digi destined</w>
di ator</w>
de uter
de ton
de fl
d ships</w>
d rac
d li
cy rilli
cor rection
contr actor
consu lted</w>
constru ctin
con fis
co exist
cl ay
ci gar
ch ongqin
ch ologi
psy chologi
ch oc
ch ed
ch aos</w>
cen ten
cap tivit
cal ligraphy</w>
cal cium</w>
ca vit
c p</w>
c ker</w>
bun dled</w>
bra un</w>
bou logn
bl uegr
bl ue
bl ockin
be ds</w>
b oc
b mg</w>
b is</w>
b hu
b har
b ber
ax iom
ar twor
ar tem
ar se</w>
ar id
ar bo
ap proachin
an ter
an tagonis
an snational</w>
tr ansnational</w>
an ger
an de
am erindi
alter nativel
alas kan</w>
air fields</w>
ag rap
ad ox</w>
par adox</w>
ad ban
accou ntab
accom plishmen
ac etime</w>
ac ef
a aa</w>
6 5.
5 :
4 4.
4 1.
2 38</w>
18 52</w>
18 04</w>
17 98</w>
16 48</w>
14 92</w>
1 14</w>
é di
è ne</w>
z il
z ie</w>
z al
y x</w>
y en
x el</w>
w ns</w>
w lett</w>
w fu
vi jay
ven erat
ved anta</w>
us her
up stream</w>
under pin
un if
un changed</w>
u y
u er</w>
tuval uan</w>
tu tor
tu dor</w>
tr ally</w>
to ken</w>
ti mor
ti lis
th ography</w>
ta ipin
t bac
suff ix</w>
su san</w>
su ppressi
su mab
sti gma</w>
st pon
st ody</w>
squ ares</w>
sic ilian</w>
sh wat
sh evi
ser bs</w>
scri bes</w>
san id</w>
sas sanid</w>
sa xe</w>
s é</w>
s os
s ms</w>
s formin
s by</w>
s bor
ru ptin
ro si
ro ses</w>
ro lled</w>
ro hin
ro dger
ro bes</w>
ric tive</w>
ri bos
rest rictive</w>
resp ondin
rehab ilitati
re frac
re buildin
r hap
r gb</w>
qu ai
pro pel
princi pally</w>
pre ten
pre sumab
pre sses</w>
pr inter</w>
pol yne
pol ls</w>
po stpon
pi pes</w>
ph anto
per sed</w>
pen ny</w>
pe el</w>
par do</w>
par agrap
pal ais</w>
or ts
sp orts
or ro</w>
or ch
opl ast
on ium</w>
on bur
om erat
om edic
ol ive</w>
o kin
o id
o econom
o dor
o chem
o bo
o aks</w>
o active</w>
ne um
n h
n al
n air
min gton</w>
mi stake</w>
men tal
me tzin
me ta
me diaries</w>
mar cel</w>
mal ls</w>
m op
m nos
m la</w>
m ble</w>
m bit</w>
m ba</w>
m able</w>
lu xem
lu cas</w>
lin ux</w>
li ab
le xin
la wfu
la va</w>
l le
ke yboards</w>
kan ji</w>
k up
k ris
k men
k led</w>
k ais
k ac
j ñ
j ol
j m</w>
it ude</w>
isra elites</w>
is le
is abe
inter mediaries</w>
in den
il lus</w>
il ion</w>
ic ular</w>
i vor
i os
i as
hin di</w>
he wlett</w>
har med</w>
har dnes
ha wks</w>
ha ul</w>
ha plogroup</w>
gy mnos
gro ssed</w>
gh ten
ge table</w>
ve getable</w>
gan ges</w>
g ü
fre shwat
for gotten</w>
for bad
fin ishin
fil ipin
ex agger
eth oven</w>
est uar
es tial</w>
es pou
er pi
st erpi
ma sterpi
er nit
er ev
wh erev
er ein</w>
wh erein</w>
ep onymou
entr ust
en wic
gre enwic
en vel
en ian</w>
en hou
gre enhou
en ad
el des
el ded</w>
e wi
e it
distri butin
dis propor
dis persed</w>
dis count</w>
din ner</w>
dem olition</w>
dec odin
de tr
d win</w>
d ran
d aim
cu stody</w>
cu bic</w>
cre scen
cra fts
consu ltin
condu ctive</w>
concep tualiz
con fer</w>
com pou
col onis
coc oa</w>
co yo
ci oeconom
so cioeconom
ci ble</w>
ci anis
confu cianis
chron icles</w>
ch ie</w>
cen trally</w>
cel estial</w>
cas tili
cap ote</w>
cal endar
c kn
c eti
bur gun
bul lyin
bu ilder</w>
bro adban
bra zz
bol shevi
bol ivi
bic ycl
bi ologically</w>
be tro
be ethoven</w>
bal timor
b h
b em
av ille</w>
brazz aville</w>
ashken az</w>
as hor
as hle
as ceti
as ak
ar te
ar io
ap hy
an tes</w>
an sformin
tr ansformin
am med</w>
progr ammed</w>
al thier</w>
al tan</w>
al ler
al ike</w>
air way
air men</w>
ag rar
ad ran
qu adran
ad jus
ac ul
mir acul
ac idi
ab led</w>
dis abled</w>
7 :
7 9.
5 7.
5 40</w>
5 4.
5 1st</w>
4 6.
4 5.
3 :
3 3.
2 8.
2 2
18 27</w>
18 26</w>
18 09</w>
18 06</w>
17 58</w>
17 56</w>
16 42</w>
1 11</w>
1 07</w>
' d</w>
π α
ε ι
ñ o</w>
í o</w>
á l
z as</w>
z ac
y ms</w>
y la
y is
y cer
y az
x iou
x iliar
woo dlan
win dings</w>
wi dow
wel ry</w>
w nin
w bor
w .
ver ns</w>
ver ge</w>
v onic</w>
us oleu
ur ias</w>
ur gin
ur gen
un stressed</w>
un author
ul tin
ul ties</w>
u gs</w>
tro op</w>
tr aum
ti fs</w>
ti co
ti cke
thre aten</w>
th on</w>
th ills</w>
tev edra</w>
ter ogen
ten tly</w>
tal ib
t é
t wit
t va</w>
t ti
t sar
suppl anted</w>
st uff</w>
st ency</w>
st av</w>
spok esman</w>
sp ike</w>
sp ider</w>
sla vonic</w>
si ze
si tivis
si stency</w>
sh man</w>
se yside</w>
se vast
se ga</w>
sar ah</w>
sad dam</w>
sa under
s ū
s ni
rul ings</w>
ru ption
ru dimen
ro bus
ro bi
ro bber
republ icanis
re ts</w>
re ted</w>
sec reted</w>
re sh
re scu
re pul
re fi
re dis
ran dy</w>
r é</w>
r ty</w>
r thou
r ms</w>
q atar</w>
publ iciz
pre serves</w>
pr ints</w>
pon tevedra</w>
po sitivis
per ms</w>
per mi
per fection</w>
pe pti
pat riots</w>
pal eo
pal acio</w>
p tor
p ton
ou rer
ou lder</w>
sh oulder</w>
ore gon</w>
or thography</w>
or te
op ol</w>
sevast opol</w>
on ag
on ab
om at</w>
ol ies</w>
op olies</w>
off erings</w>
occup ational</w>
oc cit
oc ardi
o yan
o var
o de
o cl
o ast
o as
nit ride</w>
ne wbor
ne th</w>
n tur
my ocardi
mor mon</w>
mo dati
mes senger</w>
mes ozo
mer seyside</w>
medic ines</w>
mar wan</w>
mar ius</w>
man eu
mag nus</w>
ma yer</w>
ma y.</w>
ma usoleu
ma iz
ma id
m v</w>
m r</w>
m les
m bioti
sy mbioti
m bin
m 1</w>
lo ver</w>
lin eu
li gibil
li fy</w>
li fel
le aked</w>
lar va
lar ry</w>
lab ourer
l unch</w>
l der
l .
kos ovo</w>
kin gs
ke tt</w>
k tow
k rupt</w>
k poo
k owsk
k id</w>
k ho
je welry</w>
j am</w>
j ad
is hu</w>
mogad ishu</w>
intel ligibil
instru mentati
in ox</w>
in ns</w>
in ner
in compe
im pul
id ah
ic iou
ic hu
i ya</w>
i pu
i fer</w>
ho hen
hei ghten
hear tlan
he terogen
har bor
ha sidi
h ro
h eric
sp heric
gymnos perms</w>
gu stav</w>
gl ycer
gha zi</w>
gh tly</w>
gen itive</w>
gen ital</w>
g ya</w>
g di
ful ler</w>
fre shman</w>
for mi
fin ancin
fin alis
fi refi
fer nan
fac ulties</w>
f ter</w>
f ris
f r
f lin
f do
er os</w>
er nes
er ie</w>
equ inox</w>
ep pe</w>
engin eered</w>
en tific
sci entific
en sis</w>
en is
en dings</w>
en der
empha sizin
em ittin
el lic
el ia</w>
el ectin
ed ges</w>
ec utin
ex ecutin
ec lo
ec ho
e ton
e te
e dings</w>
proce edings</w>
dur ango</w>
du ces</w>
intro duces</w>
dow ntur
dou blin
do gma</w>
dis rupted</w>
dis car
dipl omat</w>
di rty</w>
di ff</w>
der gar
kin dergar
dec idin
d sh
d ber
cou rthou
cor rosi
constru ction
connec tivit
congl omerat
col league</w>
cle arance</w>
cir ca</w>
ci etal</w>
so cietal</w>
ch inat
ch eer
cat alogu
cas pian</w>
car diff</w>
can yon
c é
c ra</w>
bu table</w>
bre men</w>
bo ein
bi ochem
ber ra</w>
ban tu</w>
ban krupt</w>
b pri
su bpri
b ai</w>
au xiliar
au top
au toc
attac hmen
at onis
ast urias</w>
as urable</w>
me asurable</w>
as slan
gr asslan
as mi
as hi</w>
ar son</w>
ar ships</w>
ol arships</w>
sch olarships</w>
ar li
ar ency</w>
transp arency</w>
ar am
ap orat
ev aporat
an them</w>
an onymou
an jo
an ed</w>
an du
an dra</w>
an aer
am ps</w>
am oto</w>
am orro</w>
ch amorro</w>
al ta</w>
al og</w>
al din
al chem
ad ron
squ adron
accom modati
acci dental</w>
ac kpoo
bl ackpoo
ab basi
a j</w>
a ean</w>
a ar</w>
a an</w>
a 2</w>
9 9.
9 50</w>
5 6.
5 3.
5 000</w>
4 9.
4 40</w>
4 20</w>
4 05</w>
4 0
3 25</w>
3 1.
2 5
19 00s</w>
18 13</w>
17 93</w>
17 92</w>
17 63</w>
1 17</w>
с т
é on</w>
z hu</w>
z hu
z ed
y man</w>
wh igs</w>
wh ales</w>
w yn
w en</w>
vi brat
v at</w>
us eppe</w>
ur uk</w>
upl oad
under takin
un hof
u ids</w>
u ber
tur ntable</w>
tur nover</w>
tur bin
tu ency</w>
ti plicati
ti mes
ti cit
ti cellular</w>
ti bil
ti ber
th ril
th odi
th ode</w>
ter rible</w>
te aches</w>
t ə
t nin
sy nta
sur gic
suppl emented</w>
su fi</w>
st uck</w>
st eel
st at</w>
squ ee
sou thernmos
sh ear
ser vable</w>
ser ae</w>
sen tien
sem inal</w>
sec rets</w>
se tbac
san dy</w>
s way
s ne
s my
s mas
s man
s fy</w>
sati sfy</w>
s can</w>
rohin gya</w>
ro wer
ro ok
ro bin</w>
rit chie</w>
reas onab
read ershi
re wir
re us
re take</w>
re marks</w>
re inven
re ein
re cti
ra ided</w>
r n</w>
qu ote</w>
py thag
pro position
pre sumed</w>
pra ag</w>
po tas
pl asmi
ph alia</w>
west phalia</w>
per me
per ist
pechen egs</w>
pav ilion</w>
p é
p on</w>
p neum
p ines
p g</w>
over lor
ou ntin
oth èqu
or ylin
st orylin
or ou
op timis
op oliti
oo ded</w>
on emic</w>
ph onemic</w>
ol ym
ogr aphic
off ensi
ob servable</w>
o ked</w>
o ak
no ah</w>
ne war
natur alist
n unci
mul tiplicati
mul ticellular</w>
mol davi
mo tion
mo tifs</w>
mi dst</w>
men del
medic inal</w>
man ner
man ities</w>
mal la</w>
mag nol
m th</w>
war mth</w>
m stron
m d</w>
ligh tnin
li me</w>
li fes
le pton
l f</w>
l al</w>
kil lings</w>
ken zie</w>
ken neth</w>
k w
k hu
k ei
jus tices</w>
jo dh
jes uit</w>
je alou
j id</w>
mas jid</w>
it ou</w>
po itou</w>
is sar
is mic</w>
is ines</w>
is cen
inter active</w>
inter actin
inten sifi
insur gency</w>
inqu isition</w>
inev itab
in validat
in us</w>
in tu
in timi
in signi
in cel
pr incel
im mortal
il olog
ph ilolog
il lic
ic ry</w>
mim icry</w>
i ̇
i x
i van</w>
i gi
i bil
vis ibil
hu manities</w>
hou nds</w>
ho tter</w>
ho tt
her oic</w>
her esi
har dy</w>
hap pines
h min
h inter
gu ilds</w>
gu ides</w>
gro oves</w>
gr apher
gi useppe</w>
gi gan
gen tlem
gen erou
g woo
g lar
fran ki
fra unhof
fou nta
fore stry</w>
foo thills</w>
fl uids</w>
fin aliz
f au
f ain
ex pat
ever ybody</w>
es cen
er oids</w>
er oded</w>
er nmos
er if
sh erif
er fron
wat erfron
en ne</w>
en dli
fri endli
elev enth</w>
el vis</w>
el eg
ec om</w>
tel ecom</w>
e to
e ho
e den
e body</w>
som ebody</w>
du kk
diver sifi
dis conten
di stress</w>
di strac
di oactive</w>
ra dioactive</w>
depl etion</w>
den ver</w>
den nis</w>
dec rees</w>
de vou
de hy
d mo
d for
cu isines</w>
cri ppl
cre am</w>
cr tc</w>
cos mic</w>
conta iner
consti tuency</w>
congre ss
con vey</w>
con stel
con currently</w>
com bus
ci alist
so cialist
chlor ophy
ch av
ch arli
cer tainty</w>
cer ebr
cel lo</w>
cas inos</w>
carbon ifer
can berra</w>
c tv</w>
bur ns</w>
bu dap
bri ghton</w>
bri gha
bri bes</w>
bo xin
bl endin
bibli othèqu
bi vore
her bivore
bi ographi
ber ger</w>
be ichu
b m</w>
b .
au dition</w>
au dition
attri butable</w>
ati vit
arch aea</w>
ar usi
bel arusi
ar sel
ar mstron
ar em
ap pr
ap pin
ap eu
an gu
an dre</w>
am ountin
am id
am do</w>
al lop
al il
som alil
al es
ag ed
tr aged
aff ective</w>
advan cements</w>
ad os</w>
ad joinin
ad jectives</w>
ad dic
ac ri
ac ked</w>
ac ities</w>
cap acities</w>
ac iati
ac eke
pe aceke
ab ortion</w>
8 4.
7 8.
6 0
4 3.
4 000</w>
3 9.
3 5.
3 5
20 50</w>
2 5th</w>
2 39</w>
2 15</w>
18 30s</w>
18 28</w>
18 05</w>
17 73</w>
17 70</w>
17 07</w>
1 15
с к
ρ ι
α τ
ń sk
è s</w>
zor oast
z zar
z ra
z n
z em
z ap
yor ksh
yar osla
y zin
y to
y mer
y li
y com
y at</w>
x le
x in</w>
x ie
we tt
war mes
w n
w ded</w>
w au
vis itor</w>
vil las</w>
vi go</w>
ver ific
v om
us eles
us can</w>
un predic
un expected</w>
un ev
u vi
u ce</w>
u .</w>
tur bul
tu enci
tro lle
tr uck</w>
tr icular</w>
ven tricular</w>
tr anse
tr acked</w>
ti mal</w>
ther apeu
tab oo</w>
ta ois
t ke</w>
su ses</w>
su mp
st ra</w>
st onbur
sp ire
sp arsel
sou ndin
so gdi
sk ylin
si mon
si machus</w>
si li
shi ma</w>
sh oes</w>
sh ek
sh eer</w>
ser fdo
sel ls</w>
se ismic</w>
scy thian
s sel
s mil
s lum
s lin
s able</w>
s .c.</w>
ru mble</w>
ro processor</w>
ro phi
ro lan
ro cities</w>
ric ke
ri dd
remin iscen
re unific
re tly</w>
sec retly</w>
re sin</w>
re fra
re de
re arms</w>
rati onal
rac ially</w>
ra ven
ra dius</w>
r ty
r sf
r c</w>
pro sti
pri vy</w>
pre tex
pre sle
pre dominat
pra jñ
por te</w>
pol ymer
pl ast
pil lar</w>
pi onag
pe writ
pe ps
pal eo</w>
p ia</w>
p fi
p as</w>
ox ides</w>
ou tse
ou nted</w>
os borne</w>
or oz
or ab
op édi
op timal</w>
op hor
op ennes
on ically</w>
on gat
om orph
om bia</w>
ol ently</w>
vi olently</w>
ol eg</w>
off ense</w>
ody sse
o va</w>
o der
o 2</w>
nor thum
nor thernmos
nom encl
neigh bor</w>
n war
mul time
mon opolies</w>
mon ophy
mon og
mil itants</w>
mic roprocessor</w>
mi zra
me gal
me ga</w>
mal nu
mal aw
mac roeconom
ma ycom
ma ya</w>
ma xwel
ma hon</w>
m nan
m lb</w>
m blin
ly simachus</w>
lu ck</w>
lou vre</w>
lo vin
li onel</w>
li mbs</w>
le yte</w>
le ip
la vis
l room</w>
l fur
l d
kin son</w>
k yo
k um
k ap
jur chen</w>
jud gem
jo ão</w>
j it
it ur</w>
it ul
it ative</w>
is ingly</w>
pr isingly</w>
sur prisingly</w>
ir relevan
inter continental</w>
inter connected</w>
insu lar</w>
infl icted</w>
infl ammat
ines smen</w>
indu ctive</w>
indu cted</w>
in soluble</w>
in scri
in nat
in fo</w>
in far
in ence</w>
im po
im material</w>
ig bo</w>
id ae</w>
ic ol
i q
i per</w>
i ber</w>
i aries</w>
hy mn</w>
hum iliat
hu xle
hos tilit
ha zards</w>
ha us</w>
ha il</w>
h é
h ugh
h ten
h m</w>
gran dmo
goo dman</w>
gla stonbur
gl aciati
gi ously</w>
gh ouse</w>
gal lo</w>
gal lium</w>
gab riel</w>
g yan
g time</w>
g or</w>
g lin
g af
g 4</w>
fur nac
fl ocks</w>
fir mwar
fin ger</w>
fi rewir
fi rearms</w>
fal klan
f ü
f ry
f for
etr uscan</w>
es se
es say
es pionag
er on
er lo
er ec
en ten
en te</w>
en riqu
en cr
en ar
em pow
el ves</w>
ecli pse</w>
ec uad
ec ks</w>
ec ked</w>
ec imen
sp ecimen
ec hes</w>
e yer</w>
e tow
e tes</w>
e il
e gre
e boo
fac eboo
e bi
e bac
dre sden</w>
dow nwar
distri butor</w>
dis satisfac
dis position</w>
dis ks</w>
diam onds</w>
di tive</w>
di git</w>
di fyin
des hin</w>
den ote</w>
den ced</w>
evi denced</w>
dec oder</w>
dec idu
de fer
dal las</w>
d ü
d ular</w>
d se
d rap
d locked</w>
d fi
d der</w>
d bra
d alis
d ad</w>
cro wded</w>
cro sso
cri ptive</w>
des criptive</w>
cou rty
cou nse
cor rection</w>
consti tuenci
con stab
con jec
commem orative</w>
com oti
lo comoti
col ombia</w>
co bur
cl opédi
ency clopédi
cl assed</w>
cl arid
cil icia</w>
ci pati
ci aliz
ch un
ch sch
ho chsch
ch romati
ch icks</w>
ch ev
ch erry</w>
ces sati
cen suses</w>
cen aean</w>
my cenaean</w>
car lo</w>
cal iber</w>
c ía</w>
c fa</w>
bus inessmen</w>
bu khar
bu ilder
bu cket</w>
biogr apher</w>
bi ologi
ben nett</w>
bar ça</w>
bal lroom</w>
bal dwin</w>
bal ances</w>
b tle</w>
su btle</w>
b olog
av oid
au dible</w>
at rocities</w>
at erally</w>
at eau
pl ateau
at al</w>
ast rophi
cat astrophi
as sé</w>
ar om
ar mat
appo ints</w>
ap pra
ap ex</w>
anti cipati
anal yzin
an xie
an ni</w>
an ner
am us
am ounted</w>
alex andra</w>
al ma</w>
al ke
go alke
al gar</w>
traf algar</w>
al ek
ag reein
ag mo
ph agmo
aff init
ad le
ad ditive</w>
ac ticin
pr acticin
ac hit
9 :
9 9
9 6.
8 000</w>
6 :
6 80</w>
6 2.
5 2.
4 76</w>
3 8.
3 6.
2 75</w>
2 500</w>
18 19</w>
18 17</w>
18 03</w>
17 99</w>
17 94</w>
17 86</w>
17 80</w>
1 100</w>
ñ ez</w>
á le
à n</w>
zhan gzho
z anti
z anne</w>
y wi
y tham</w>
y ru
y men</w>
y led</w>
y ad
xi amen</w>
x yle
x x</w>
x vil
x er</w>
wor shipp
woo dwin
we eds</w>
wat erlo
w we</w>
w rapped</w>
w ls</w>
w com
vol ga</w>
ver de</w>
v p</w>
up scal
un zhi</w>
un wil
un wan
un successful
un licensed</w>
un ix</w>
un expec
ul te
u cs</w>
u ba</w>
ty pewrit
tur kmen
thor ough</w>
th worms</w>
th les
ter sh
ter ra</w>
ten ber
tel ug
tar tu</w>
ta xa</w>
ta iji</w>
t yin
t spur</w>
t lyin
suppl ementar
st yled</w>
st ou
st orted</w>
st eroids</w>
st ein
st ants</w>
so fter</w>
sin ki</w>
sign ature
si stence</w>
si pat
si dd
shi mla</w>
sh unzhi</w>
sh orts</w>
sh og
sh ep
ser ial
seph ardi</w>
sen eg
sel ler</w>
sec uriti
sec tar
sec eded</w>
se jm</w>
se den
s war
s former</w>
ro yalis
ro uted</w>
ro bbin
ri fl
ri der
revi ewin
resu ltan
reli giously</w>
regul ator</w>
re tu
re mnan
re len
re hear
re formin
re fo
re establis
re constructed</w>
re ak</w>
st reak</w>
ra ys</w>
r sel
r r</w>
qu et</w>
pun ctu
pro tagonis
pre sidi
pre fron
poten tial
por tray</w>
por trait</w>
pop ularis
po thalamus</w>
po gro
plut onium</w>
pl oded</w>
pl ead
pl au
pl antin
ph yto
ph lo
per sistence</w>
pat riot</w>
par ral</w>
pal ae
p am
over turned</w>
ou tlyin
ou lder
sh oulder
or andu
op ic</w>
on isati
ol igo
ol est
oc cus</w>
ob servan
o zon
o vas
o h</w>
o eu
o .
nor we
nor mati
non partisan</w>
non ites</w>
no cic
no body</w>
nin ety</w>
nin ete
nic arag
ni zed</w>
ni ze</w>
ni gs
ne ys</w>
ne wcom
ne opl
ne il</w>
ne hr
n ā</w>
n ā
n é
n po
n hs</w>
n go
n at</w>
n ah</w>
mul ticul
mon ster</w>
mol tke</w>
moder nized</w>
moder nize</w>
mo difyin
min amoto</w>
mil wau
mi kha
men nonites</w>
mem oriz
mem orandu
mar ked
man shi
mac roph
m ss</w>
m son</w>
m oc
m mit
su mmit
m lan
ly mph
lu cius</w>
lo id</w>
li vonian</w>
li tigati
li bre</w>
le igh</w>
le eches</w>
lan dlocked</w>
lag oon</w>
la ys</w>
l fat
su lfat
l achi
wal lachi
kö nigs
kno xvil
kno cked</w>
k ton</w>
k la
k ia</w>
k ai
it ry</w>
it bur
pol itbur
ir mis
sk irmis
ir ds</w>
inter rac
inter disciplinar
insti gat
influen za</w>
ines sman</w>
in th</w>
in reic
we inreic
in organ
in ist
in ga</w>
in dul
im proper</w>
im pregn
il lo</w>
il legi
il legally</w>
il har
ph ilhar
il ean</w>
il ateral</w>
id ris</w>
ic emen</w>
pol icemen</w>
i in
i bra
hy pothalamus</w>
ho tspur</w>
high bur
her bs</w>
hel sinki</w>
har ves
han nover</w>
ha ytham</w>
ha wkin
h th
gu pta</w>
gu istically</w>
lin guistically</w>
gu arded</w>
gen tly</w>
ga elic</w>
g ically</w>
g alis
le galis
fun dra
fre ud</w>
frat ernit
frag mented</w>
fl ooded</w>
fin anced</w>
fi ji</w>
fac tboo
f rit
establis hes</w>
es oter
er pc</w>
pow erpc</w>
er ol</w>
olest erol</w>
er iou
st eriou
my steriou
er iliz
st eriliz
er ge
ep ticis
sk epticis
entr ench
en tially</w>
en sbor
en erge
en dpo
en cro
el sen</w>
el li</w>
el io
ed mun
ear thworms</w>
e tu
e size</w>
e of</w>
e j</w>
e go
e fi
e bis
pl ebis
e b</w>
don da</w>
do gmati
dis sipat
dis ruptin
dis agreements</w>
dic ot
di storted</w>
di ovas
di mit
di ap
der yk</w>
fry deryk</w>
den yin
den oted</w>
dem ean
defin itive</w>
de position</w>
de eds</w>
db mss</w>
d ó</w>
d writ
han dwrit
d rati
d hy
d hol
d at</w>
d ai
d ab
cu itry</w>
cre ativit
corresp onded</w>
conservati sm</w>
confl ictin
condu cts</w>
concl usive</w>
con tag
con ian</w>
fran conian</w>
com plemented</w>
col orati
col og
cli mbin
cle oti
cl ashed</w>
cl arit
circum navi
cir cuitry</w>
cin nat
cin cinnat
ci ologi
so ciologi
chap ulte
ch olesterol</w>
ch man</w>
ch et</w>
ch ecks</w>
ch ecked</w>
ch au
car diovas
car diac</w>
c tifi
c pu
c in</w>
by zanti
bus inessman</w>
bre ached</w>
bra hman
br adle
bo yle</w>
bo hr</w>
biogr apher
bi omedic
bel oved</w>
be et
be ef</w>
bac kup</w>
ba há
b iz
b air
ati st</w>
ati sm</w>
ati ca</w>
at tva</w>
bodhis attva</w>
at to</w>
as yl
as sor
arch eolog
ar mag
ar in</w>
ar ifi
ar et</w>
ar av
ap hed</w>
an zho
qu anzho
an son</w>
an sformer</w>
tr ansformer</w>
an nunci
an iz
an gch
an for
st anfor
an etar
pl anetar
an des</w>
am orph
am mer</w>
am bus
am bo
al am</w>
ag gra
af tersh
ad able</w>
ac he</w>
ac he
ac eable</w>
ab irds</w>
se abirds</w>
ab hi
a ju
a han
a al</w>
6 9.
6 70</w>
6 60</w>
5 60</w>
5 20</w>
3 70</w>
3 10</w>
3 01</w>
20 18</w>
2 25</w>
2 22</w>
2 12</w>
18 16</w>
18 02</w>
17 81</w>
17 59</w>
17 00s</w>
12 .5</w>
1 a</w>
1 14
1 13
1 12
' i</w>
ī n</w>
ā r
á s</w>
z ále
z ul
z iz
z ic
z hen</w>
you rsel
y g
y ered</w>
x ty</w>
x teenth</w>
x tap
x ia</w>
x an
west chest
w ton
w son</w>
vol ta</w>
ver ished</w>
v d</w>
v ais
v ab
us ew
un rest
un pre
un pleas
un ge</w>
un fai
un eas
un do</w>
un awar
um bian</w>
u aliz
u a
tur tles</w>
tr uce</w>
tr arch</w>
tion aliz
ti to
ti tiven
ti lin
thom pson</w>
ther ner
th rus
ter ial
tab loid</w>
t ó
t son
t sa
t loo
t ler</w>
t gen
wit tgen
t bur
sī nā</w>
sy nc</w>
su zer
su mer</w>
stoc khol
sti cks</w>
st oic</w>
st ocks</w>
st erit
spra wl</w>
sp arks</w>
sp anned</w>
slo vak
sk iin
sin atra</w>
si xty</w>
si xteenth</w>
si tivel
si ah</w>
sh oe</w>
sh eph
ser pen
sem itism</w>
sem inol
sel ju
se wer
scul ptor
sch el</w>
scen ario</w>
sas kat
sam oan
sam khy
s sly</w>
s room
s me
s lit
s former
s d</w>
ru ptive</w>
roman ticis
ro ma</w>
ro logy</w>
ro eville</w>
ro dó</w>
ro ckn
ro ast
ri os</w>
ri ft</w>
ri ff
ri des</w>
resp ects</w>
ren tal</w>
ren ces</w>
refl ector</w>
re sti
re play
re pel
re lic
re issu
re generati
re dem
re defin
rap hael</w>
ra idin
r ā
r ías</w>
r lin
r in</w>
r hi
r do
r bon</w>
r .
qu ot
qu eu
qu atel
qin gha
q i</w>
q asi
py rr
pu get</w>
progr ammer</w>
pro tracted</w>
princi pia</w>
pre sump
pre scription</w>
pre lud
por trait
por cel
pom pei
po sitivel
pl um</w>
pl ugs</w>
pl ots</w>
pl ements</w>
pl anner
per tainin
per sis
per pen
per enni
pen nan
pe tre
pe trarch</w>
pe do</w>
tor pedo</w>
pap yru
p yon
p sic
p amph
ow nin
ou tloo
os ce</w>
or ni
or ne</w>
op atra</w>
oo ga</w>
tan ooga</w>
on ysu
on ysi
on ts</w>
on tally</w>
on ardo</w>
on ais
pol onais
occur rences</w>
oc ytes</w>
oc rit
oc cul
o vin
o trophi
o tec
o stro
o fin
nu ku
nu cleoti
nic aea</w>
ni kit
ne wton
ne vil
ne arer</w>
nas car</w>
n ure
n shi
tow nshi
n op
n ished</w>
n cements</w>
n alia</w>
mun ition
mul atto</w>
mon roeville</w>
mo tow
mo dular</w>
mis understandin
mis condu
mer ck</w>
men tor
mem orial
me thodi
me adow
maxim ilian</w>
mag yar
mag hre
mad re</w>
mac kenzie</w>
ma zur
m eric
lut yen
low shi
lon gtime</w>
lo dgin
li mb</w>
li mb
li ken
li eber
le vy</w>
le ttin
le pi
le onardo</w>
le ak</w>
la yered</w>
l ton</w>
ken ya</w>
kel vin</w>
ke yn
kar nat
k ü
k st
k on</w>
k of
k li
k dow
k bon
k b</w>
k ah
k .
jos ef</w>
j ul
j ra
j ets</w>
iz ontally</w>
it zer</w>
it chen</w>
is molog
se ismolog
is mail</w>
ir rit
inter ior
inten sivel
inst antly</w>
in verse</w>
in variab
in valid</w>
in se
in gest
in fore
ra infore
in ex
impo verished</w>
im plicit</w>
im mor
il lon</w>
ic tor
ic tion</w>
ic ked</w>
ic ef</w>
un icef</w>
i voc
i hdi</w>
i formed</w>
un iformed</w>
i b</w>
i ance</w>
var iance</w>
hy rul
hor izontally</w>
hon gwu</w>
hom eles
ho stag
hi jac
hi de</w>
hi atus</w>
her men</w>
hear tbreak</w>
har mles
han over
han na</w>
han ja</w>
han ged</w>
h ö
h up
h ri
h ren
h off
h mou
ma hmou
h m
h ly</w>
h em</w>
gu ez</w>
gu ardin
gre ensbor
gr apher</w>
gon zále
gl yph
gi br
gen eric</w>
ge opoliti
g zhen
g k
g c</w>
g b
g av
fun gal</w>
fun ct</w>
fle tch
fis sile</w>
fis hermen</w>
fin nic</w>
fi xati
fi refo
fi bre</w>
fel lowshi
fav ourable</w>
far mlan
f ws</w>
f ool
f laws</w>
f dr</w>
ex ploded</w>
ex cre
ex changed</w>
ex am</w>
ever et
es pa
er or</w>
er es
er cas
low ercas
er ania</w>
pom erania</w>
en am
em bl
em bel
em ak
el om
eg ically</w>
strat egically</w>
ed don</w>
ea val</w>
uph eaval</w>
e. t.</w>
e ther
e op
e ogen
e ja</w>
e houses</w>
e de</w>
e 3</w>
dre ssin
dra inag
dis gr
din ia</w>
di onysu
di onysi
des erts</w>
de vast
de ter</w>
de funct</w>
de br
d ham
d car
d actu
di dactu
cri mson</w>
cre vas
cre dible</w>
cor sic
cor rected</w>
contri butor
conqu eror</w>
con sistency</w>
con served</w>
com edi
com ebac
collab orative</w>
col umbian</w>
co dil
cro codil
co aches</w>
cle opatra</w>
cl osu
cl oist
cl arifi
cl ande
ch angch
ch ances</w>
cer ro</w>
cap pad
cal tec
ca ve
ca usew
ca thode</w>
c yn
bu yer
bri dg
bou rbon</w>
bo xer</w>
bo bby</w>
bi of
ber ber
be tray
bat lle</w>
bac terial
bac kbon
bac illus</w>
b ju
su bju
b bes</w>
ho bbes</w>
b ben
ri bben
b ain
auto didactu
audit orium</w>
at tanooga</w>
ch attanooga</w>
at ric
as sroom
cl assroom
as sin
as ks</w>
armag eddon</w>
arch ived</w>
arch dioc
arbo retu
ar yn
ar tu
ar sac
ar dt</w>
ph ardt</w>
ge phardt</w>
ar ao
ph arao
anti ox
anti bacterial
an za</w>
an yl</w>
ur anyl</w>
an tel
an spl
tr anspl
an sformer
tr ansformer
an om
an obacteria</w>
cy anobacteria</w>
an ian
an di
am orro
ch amorro
am ophon
gr amophon
am mer
am mable</w>
al ls</w>
al lan</w>
al inati
des alinati
ag ar</w>
adi das</w>
ad va
ad ru
qu adru
ad ren
ad ictor
contr adictor
ad he
acci dentally</w>
ac tivati
ac hmen
ac ep
contr acep
ac ea
ab ian</w>
a ws</w>
a or
a ja</w>
a hi
9 80</w>
9 07</w>
7 20
5 5.
5 10</w>
5 1.
4 82</w>
4 8.
4 2.
3 45</w>
3 42</w>
3 35</w>
3 33</w>
3 05</w>
2 a</w>
2 90</w>
2 2nd</w>
2 27</w>
2 23</w>
17 87</w>
17 84</w>
17 15</w>
16 09</w>
15 21</w>
12 .7</w>
1 16</w>
è re
ä t</w>
× 10
z z</w>
z win
z ol
z ay
z ah
yon gzhen
y ze</w>
y st</w>
y ni
y men
y go
y ce</w>
y be</w>
x t</w>
x pay
x iii</w>
woo dwar
win ged</w>
wi ki
we althier</w>
wal nu
w for
vil lon</w>
view points</w>
vi ties</w>
vi kings</w>
vi eja</w>
ver sati
ver ify</w>
ver dic
val entin
vac ancy</w>
va jra
v á
v t</w>
v ei
v ector</w>
v ection</w>
v ea
v ague</w>
ur yan</w>
up brin
un mar
un jus
un ify</w>
un dp</w>
un dou
u. k.</w>
u me
u bled</w>
tu mblin
trust ees
tro up
tro ubled</w>
tro py</w>
transp orts</w>
transp ortin
tr ías</w>
tou lou
ton ne</w>
to xin
thro mbol
than ks
th hel
wi thhel
th esi
ter son</w>
ter ran
ter life</w>
tar iq
tan ta</w>
tal ented</w>
ta xpay
ta xis</w>
t ʰ</w>
t tresses</w>
t mar
system atics</w>
synth esize</w>
sur rogat
sun ny</w>
subur bic
subsi dized</w>
su ms</w>
su asi
stri fe</w>
sti rlin
sti ff</w>
stat ewi
st artu
sp arta</w>
som eho
so da</w>
smo oth
si del
shi va</w>
sh ella
ser ra</w>
ser ial</w>
sequ enced</w>
separ atist</w>
sel ectivel
se wag
se vil
se tte</w>
se tanta</w>
se ed
satur nalia</w>
san dst
sal iva</w>
sa hel</w>
s ão</w>
s vi
s verse</w>
s sa</w>
s nu
s d
s cin
s b</w>
ro wer</w>
ro sal
revi ewer
resp onds</w>
renew ables</w>
remar kab
re vel</w>
re tt</w>
re tion</w>
sec retion</w>
re pen
re pat
re gal</w>
re fur
re fou
re at
ran go
ra ider
ra fts</w>
r ague</w>
sp rague</w>
qu otes</w>
qu ois</w>
qu ez</w>
q f</w>
pu tati
progr ammer
pro pul
pro found
pro be</w>
pri mac
prefer ential</w>
po tter</w>
po stur
pl aqu
pir ae
ph eas
ph aryn
per ative</w>
pen tag
pe pper
pe fac
ty pefac
pe akin
pat assé</w>
pas hup
par thia</w>
par ker</w>
pan handle</w>
p u</w>
p ses</w>
p sal
p pressin
su ppressin
p par
p im
p ah
ou rin
ou nce</w>
organ elles</w>
or us
or med</w>
st ormed</w>
or ac
op eras</w>
on dor
om orphi
om itted</w>
om inat
om ber
om ar</w>
ol lin
ol ingu
oc ultur
o za</w>
o tati
o i
o chemistry</w>
o be</w>
nur hac
no tifi
ne edin
ne der
n olog
n ishin
n en
n ae
mul tilin
mu tilati
mo tives</w>
mo dal
mi ghty</w>
mer idi
mer can
men des</w>
mem oir
me iji</w>
man iz
man del
ma yo</w>
ma ybe</w>
ma uryan</w>
ma jur
ma hab
m ī
m rna</w>
lo ved</w>
lo bbi
livin gst
lin nae
lic chav
li ger
li ber</w>
li ao
les snes
len non</w>
le ak
lat inos</w>
lab rad
la wn</w>
l ver
si lver
l ju
ku iper</w>
kil ler</w>
kha zar</w>
ken dal
k ā
k oo
k dis
ma kdis
k bu
jun ction
j k</w>
j ail
it men
recru itmen
is ition
is enber
is ch
iro quois</w>
ir ce</w>
pe irce</w>
inter depen
inst allin
infl ammati
inci dental</w>
in varian
in te</w>
in le
in ee</w>
nom inee</w>
im plyin
im perfective</w>
im alis
min imalis
ide alist
ic uou
ic hi</w>
ic ab
i yah</w>
i vy</w>
i pe
i orati
i forms</w>
un iforms</w>
i bac
hil ls
hi ma</w>
her schel</w>
her bic
ha ifa</w>
h ter</w>
h rag
h ra</w>
h ague</w>
gu idin
gr enad
go eth
gh et
gen tri
gen omic</w>
gar cía</w>
gan ondor
g onom
g ne
g ei
fre eze</w>
found ational</w>
fore bra
for um
for tresses</w>
for ged</w>
fl ute</w>
fl oral</w>
fir stly</w>
fin ishes</w>
fi xin
ff ee
fer ns</w>
fel ix</w>
fe eds</w>
fam iliar
fa ulty</w>
f é
expan sionis
ex empl
ex cus
ex amines</w>
ev enly</w>
ev enings</w>
ev able</w>
eun uch</w>
eu cli
eu charis
eth nolog
est ea
hom estea
esi zer</w>
synth esizer</w>
es sin
es person</w>
spok esperson</w>
es pan
er os
er oon</w>
er fow
wat erfow
er fi
ep ider
enjo ymen
en to</w>
en thron
en son</w>
en os
en fran
en eu
pr eneu
entre preneu
en es</w>
en di
em my</w>
em ir</w>
el ongat
el med</w>
wh elmed</w>
over whelmed</w>
el lis</w>
el ector</w>
ed men</w>
fre edmen</w>
ec iati
sp eciati
ec hs</w>
ear thed</w>
e ten
e bu
dri fted</w>
dou bts</w>
dor gon</w>
dis qualifi
dic rafts</w>
han dicrafts</w>
diap hrag
di ze</w>
standar dize</w>
di ties</w>
di ra
deter iorati
der son</w>
der ative</w>
fe derative</w>
den sities</w>
den ies</w>
del usi
del igh
dec ides</w>
dec ep
de yos
hi deyos
d ric
d ral</w>
he dral</w>
d opter
d mas
lan dmas
d ji
d han
d gem
d dar
go ddar
d cor
har dcor
d bir
cz echs</w>
cra wfor
cra fts</w>
cos mop
cor tico
contin uo</w>
contin ual</w>
consu lar</w>
consp icuou
con vection</w>
con scripted</w>
con ra
compe titiven
com rad
com ply</w>
col lat
co ffee
ci dental</w>
oc cidental</w>
chlor oplast
ch ew
ch et
ch asse
ch ak
cat alog</w>
cas ual</w>
car refou
car pen
car av
cap itul
can cel</w>
cam eroon</w>
ca ves</w>
ca stel
c ó
c tivel
c st</w>
c pc</w>
c l</w>
c ef
c do</w>
c d
bureau crati
bur nt</w>
bu ttresses</w>
bro od</w>
bou ti</w>
dji bouti</w>
bo ziz
bo dhi</w>
bl ended</w>
bi ochemistry</w>
ber nes
ben ghazi</w>
bel liger
baz aar</w>
bas ket</w>
bar onial</w>
bal ancin
ba hra
b tedly</w>
undou btedly</w>
b r</w>
b ha</w>
b group
su bgroup
b bl
b bar
hu bbar
authorit arian</w>
ati tu
gr atitu
ath enian</w>
at um</w>
at inat
ast roph
cat astroph
as sign</w>
as htr
arch etyp
ar vati
st arvati
ar mad
ar kson</w>
cl arkson</w>
ar able</w>
appo inte
ap ollin
an tr
an ton</w>
an them
an sverse</w>
tr ansverse</w>
an slit
tr anslit
an oke</w>
an is</w>
an iel</w>
an co</w>
am oy</w>
am bro
al les
sh alles
mar shalles
al itarian</w>
eg alitarian</w>
al ien</w>
al ic</w>
al di
her aldi
al bat
ag ic</w>
af terlife</w>
ad ox
par adox
achi evable</w>
ab ram
a ˈ
a wat
a unch</w>
st aunch</w>
a thei
a el
9 1.
9 0.
8 0.
7 7.
7 68</w>
7 22</w>
6 80
6 5
6 34</w>
5 65</w>
5 30</w>
4 7.
3 90</w>
3 71</w>
3 55</w>
3 4.
3 03</w>
2 8
2 7
2 64</w>
2 6
2 37</w>
2 17</w>
18 41</w>
18 23</w>
18 18</w>
18 11</w>
17 97</w>
17 85</w>
17 78</w>
17 74</w>
17 65</w>
17 51</w>
16 81</w>
10 66</w>
' í</w>
bahá 'í</w>
ṇ in
ا ن
р е
а я</w>
σ τ
ρ α
ι ς</w>
ɪ ˈ
ō en</w>
é ph
á ri
á r
z u</w>
z ir
z ip</w>
z ion</w>
z ier</w>
z ha
z bur
yor uba</w>
yal ts
y way</w>
y ri
y len
y hou
y gen
y est
x ml</w>
wor sen
wor ld
win dho
wil mington</w>
wil ls</w>
wer ner</w>
w im
vol ution</w>
vi eir
ver mon
var angi
v sk
v et</w>
v am
us anne</w>
ur nal</w>
under woo
un pai
un ivis
un ga</w>
un fol
un employed</w>
un ei</w>
un conven
un changin
ul us</w>
ul ence</w>
ul am</w>
u to</w>
u ticle</w>
u ter</w>
u ge</w>
tuval uan
tur tle</w>
tu tionaliz
tro pos
tri gonom
tradi tionalis
to yo
ti gr
ti ges</w>
ves tiges</w>
ti fe
ti alis
thin ner</w>
ther eof</w>
th ew
tes serae</w>
terra zas</w>
ter iolog
ten ets</w>
ten cin
techn ologically</w>
tag eou
ta stes</w>
ta ft</w>
t sw
t su
t sh
t pos
t nered</w>
t man
t forwar
t et</w>
t dat
t '
su lli
su le</w>
sti ck
stev enson</w>
st oic
st graduat
st ener</w>
st eal
sp un</w>
sp erlin
sp ends</w>
sp arse</w>
simp lify</w>
si stants</w>
si onat
si mis
si lur
si em
sha ivis
sha fts</w>
sh ōen</w>
sh men</w>
sh elves</w>
sequ ential</w>
sen tencin
sel ler
sec ularis
se ptu
se ke
sch uman
sch rö
sar dinia</w>
sam my</w>
sal oon</w>
sal aries</w>
sa arem
s sor</w>
s son</w>
s nap
s mutati
s me</w>
s lic
s gre
ru vius</w>
vit ruvius</w>
ro mium</w>
ro den
ro de</w>
ro anoke</w>
rin gton</w>
ric ian</w>
ric ian
ric hn
ri anis
resp onden
relu ctance</w>
refer enced</w>
re vue</w>
re tas</w>
re scin
re ply</w>
re mi
re introduced</w>
re im
re gin
re cts</w>
re consti
re claim
re affirmed</w>
ran ger</w>
ran dom
ra vag
ra inian
uk rainian
r ío</w>
r te</w>
r l
qu oti
py thon</w>
pur itan</w>
pul itzer</w>
pu zz
pro vos
pro stat
pro position</w>
pro cit
reci procit
pri orities</w>
pre mat
pre lat
pre cin
pr inter
pon tife
pol ished</w>
po stgraduat
po inte</w>
pl uc
pes simis
per vasi
per uvi
per suasi
per sal</w>
pen nin
pen ned</w>
pen dants</w>
pen aliz
pe acetime</w>
pe acef
pat rilineal</w>
pat rician</w>
pat rician
pas swor
par tnered</w>
par then
pan theis
pal eogen
pal au</w>
p tor</w>
scul ptor</w>
p ak</w>
p ae
over ton
ou tpos
ou ted</w>
ou tdat
or nat
or fu
or ds</w>
or an</w>
or adi
sp oradi
op us</w>
op pressive</w>
op pi
op per
on ym</w>
ol iz
oc kag
ob ses
o dul
o americ
o acousti
o ac
num eric</w>
num eral
nou vea
no ttin
ne uter</w>
ne tism</w>
nath aniel</w>
n ī</w>
n ú
n ée</w>
n us
n tles
n st
n sel
n gu
n gr
mou nt
motor cycle</w>
mor ain
mon ophon
mon iz
moder nit
mo vable</w>
mis demean
mir acles</w>
min ance</w>
min aj</w>
mic key</w>
me ga
mathem atica</w>
mas onry</w>
mar ryin
man dal
mal ik</w>
mahar ashtr
mac don
m ée</w>
m med</w>
lu ig
lon gev
lo gically</w>
lo gar
liber aliz
li stener</w>
li ps</w>
li meric
len ovo</w>
le vue</w>
le pti
le eds</w>
lac tos
la usanne</w>
l ó
l vest
l si
l lati
ti llati
kn esses</w>
kan nad
k r
k og
k man</w>
k lu
k lor
k ib
k een</w>
k bur
k am</w>
ju xtap
jo achi
jam ahi
j r</w>
j ir
it ually</w>
it iner
it erati
it ariz
it ania</w>
ist erial</w>
mag isterial</w>
ir vin
intermit tently</w>
inter sti
inter national
insti tutionaliz
insp ector
indu ctance</w>
incl ined</w>
in uit</w>
in lin
in id
tr inid
in fus
in flat
in dé
in ctly</w>
st inctly</w>
in am
in able</w>
im proves</w>
im plements</w>
im perative</w>
im br
il li</w>
il lar
il ep
il du
il aterally</w>
un ilaterally</w>
igh tforwar
stra ightforwar
idi osyn
ic ides</w>
ic bm</w>
i vo
i q</w>
i man
i kson</w>
i gran
i gni
i gen
i fes
man ifes
i be
i ban
i bal
i ad</w>
il iad</w>
hydro carbon
hu ai</w>
hou seke
hoo ker</w>
ho bby</w>
hit tite</w>
hi onable</w>
hi erog
hi ed
mo hied
hi avel
mac hiavel
har psic
har moniz
ham pton</w>
hal ifa
ha ute</w>
h ō</w>
h s
h q</w>
h or</w>
metap hor</w>
h mu
h ma</w>
h ey</w>
h et</w>
gro cer
gre yhou
gr unge</w>
gr illed</w>
gni zin
reco gnizin
gen tle</w>
gen otyp
ge ologi
gan da</w>
g yalts
g pa</w>
g ow
g man</w>
g gs</w>
g able</w>
fu elled</w>
fro st</w>
fre shmen</w>
fran cs</w>
fore fron
fle dg
fi ef
fi dd
ff el</w>
fer mented</w>
fat alities</w>
fas hionable</w>
f ta
f dom
f d
expre ssly</w>
experimen tally</w>
exces sivel
ex termin
ex po</w>
ex po
ex communicati
eus ebi
est inian
pal estinian
es hir
er tur
er ron
er om
er nic
er ikson</w>
er alis
ep tical</w>
sk eptical</w>
ep ilep
en tropy</w>
en tifu
pl entifu
en ties</w>
tw enties</w>
en sibly</w>
ost ensibly</w>
en ger
en ch</w>
em inence</w>
em igran
el ands</w>
ei ffel</w>
ec table</w>
ec ia</w>
ec hi
e opl
sp eopl
e ol
e je</w>
e gu
du kes</w>
dow ngr
don key</w>
doc klan
do va</w>
mol dova</w>
dis persal</w>
dis enfran
dis appearance</w>
dic ular</w>
perpen dicular</w>
di ve</w>
di urnal</w>
di stinctly</w>
di rects</w>
di der
di acri
des erted</w>
der vis
der ivin
der alist
fe deralist
den tial</w>
den tial
dec eas
de stabiliz
de odis
vi deodis
d west
mi dwest
d ts</w>
d stream</w>
oo dstream</w>
d side</w>
d gu
d cat
wil dcat
d b</w>
d ak</w>
cy clones</w>
cul inar
cou ntles
cou nsel
cor pse</w>
cop ernic
contr actin
contin gency</w>
conten tiou
conta inmen
concl ave</w>
con ni
con gol
con ceded</w>
commo dities</w>
commen tator</w>
com te</w>
com otive</w>
lo comotive</w>
col orfu
col lar</w>
co imbr
co don
cli ff</w>
cl itel
cl ad</w>
cit ade
cir cus</w>
chie fta
chie fdom
chest erfi
ch romium</w>
ch oir
ch oacousti
psy choacousti
ch ival
ch ir
ch ilean</w>
ch ian
ch eshir
cer eal
cen nes</w>
vin cennes</w>
carthag inian
car retas</w>
car nav
car eta
car cas
cap sule</w>
can didac
cal pur
ca thar
c w</w>
c sa</w>
c r</w>
c ec
by rd</w>
bur ton</w>
bun dles</w>
bu you
bu ildu
bra hmin
bor rower
boo tle
blo omber
bl oodstream</w>
bl ockag
bl essin
bis cay
bi otec
bel levue</w>
be atric
bar nes</w>
bar ak</w>
ban jo</w>
b tr
su btr
b merged</w>
su bmerged</w>
b j
autom otive</w>
auto biogr
au tos
au sterit
at yp
at tle
at so
wh atso
at onic</w>
as sistants</w>
as sifyin
as les</w>
me asles</w>
as ho
as hin
as ean</w>
as cribed</w>
architec turally</w>
ar ra</w>
ar eth</w>
naz areth</w>
ar ence</w>
cl arence</w>
ar bor
ar ak
aqu ifer</w>
aqu arium</w>
ap prehen
ap oc
ap ertur
anti semitism</w>
anti gen</w>
an xi</w>
an smutati
tr ansmutati
an sin
cle ansin
an sgre
tr ansgre
an ol</w>
eth anol</w>
an no
an kton</w>
an ie</w>
an ga</w>
an er</w>
an ec
ampl itude</w>
am way</w>
tr amway</w>
am tsch
ges amtsch
am os</w>
am eter</w>
am assed</w>
allo tted</w>
alex andre</w>
al ve
al te</w>
al men
al bi
air way</w>
ai ah</w>
ag ust
ag nos
ag itati
ag ined</w>
ad obe</w>
acad emia</w>
ac oc
ac kbur
bl ackbur
ab ys
: 9</w>
9 8.
9 4.
80 8s</w>
7 5.
6 4.
6 3.
6 25</w>
6 1.
5 80</w>
4 90</w>
4 88</w>
4 75</w>
4 25</w>
4 16</w>
4 06</w>
3 9
3 2nd</w>
3 20
3 2.
3 19</w>
3 09</w>
2 7th</w>
2 3rd</w>
2 16</w>
2 14</w>
18 .5</w>
17 72</w>
17 60</w>
17 50s</w>
17 23</w>
16 88</w>
16 70</w>
16 61</w>
16 60</w>
15 65</w>
15 60</w>
15 17</w>
10 .7</w>
10 .5</w>
0 2
″ n</w>
ṃ sā
ᵻ ˈ
р у
ω ν</w>
ο υ
δ ε
γ ε
ː ˈ
ˈ t
ś e
ú s</w>
é r
é n</w>
é mil
é ly
æ di
· info</w>
zoroast rianis
z uc
z rat</w>
z hi
z ab
y ō</w>
y sac
y r</w>
y mor
y mat
y ar</w>
y ak</w>
y ah
y .:
x u</w>
wea knesses</w>
we tlan
w por
w lan
w h</w>
w ey</w>
w eas
vis ualiz
vin ci</w>
vi zier</w>
vi olet</w>
ven tilati
van dal
v us</w>
v ar</w>
v ain</w>
v ae
us ef
ur bati
ur asi
up tow
unequ ivoc
under scor
un manned</w>
un lo
un interrupted</w>
un inhab
un incor
un ilateral</w>
un he
un fair
un dwor
un compressed</w>
um nis
ul nes
u yl
u or
u il
u i</w>
u f
u bian</w>
u ban
u 2</w>
tw ined</w>
tw ear</w>
tu tor</w>
tu mul
tu fts</w>
tu fai
tson gk
ton nag
ti ser
ti play
ti mati
ti co</w>
ther anis
th yni
th st
wi thst
th side</w>
th ra
th oc
th mus</w>
th ales</w>
tes tifi
techn ician
tec eden
tas mania</w>
tap ur</w>
tan gible</w>
tan eit
tal ler</w>
ta xi
ta wa</w>
t ür
t ö
t vs</w>
t ser
t pr
t po
t l
t fi
t .:
sur inam
su rely</w>
su lfur
su dan
su bli
stru ction</w>
sti cally</w>
stati stically</w>
stat esman</w>
st yli
st rus
st rad
st olog
st enci
st ave</w>
st av
spl ittin
sp ut
sp iro
sp ells</w>
son am</w>
sol ids</w>
signi fy</w>
sign allin
si mo</w>
shi kai</w>
shi gat
shi elds</w>
sh tokavi
sh ek</w>
ser vance</w>
ser fs</w>
sec ulariz
sec lu
sch uyl
sar abia</w>
sam ba</w>
sam arit
s wom
s sar
s n</w>
s mi
s literat
s lap
s continental</w>
s cap
s ain</w>
ru gged</w>
ro wa
ro tar
ro sen
ro sa</w>
ro po
ro me
ro lls</w>
ri pp
ri mp</w>
sh rimp</w>
ri gat
ri fi
repl enis
repl aceable</w>
ren ees</w>
rele vance</w>
re works</w>
re tr
re par
re gis</w>
re gat
re former</w>
re entr
re el</w>
re devel
re ctan
re clai
re arran
ras htr
ra ined</w>
r ced</w>
sou rced</w>
qu otati
qu ota</w>
q s</w>
py renees</w>
ptol emies</w>
psy ched
prosec utor
projec tile</w>
pro of
pro men
pro fan
pre compos
pr erog
pp nb</w>
por tal</w>
por tal
pol ymat
pl ymp
pl eth
pl ankton</w>
pic kup</w>
pi xel</w>
ph erom
per se</w>
pe te</w>
pe dag
pe acoc
pal et
pal eon
pai gc</w>
p á
p ·info</w>
p tly</w>
over taken</w>
over take</w>
ou tre
ou tin
ou tfi
ot tawa</w>
ordin aril
or tion
or olog
or iti
or ca</w>
or ally</w>
op ædi
oo ks</w>
on taneously</w>
sp ontaneously</w>
on ne
on dly</w>
sec ondly</w>
on as</w>
om pressi
om intan
ol lon
ol ev</w>
ogr aphed</w>
occup ancy</w>
oc top
oc kle
oc kbu
ob servance</w>
o ton</w>
ph oton</w>
o es
o dram
o ath
o ad</w>
o 3</w>
non profit
nobl emen</w>
no xiou
no stal
no graphy</w>
nic osi
nic ki</w>
ni pi
ni kos</w>
ni kay
ni elsen</w>
ni ble</w>
ni ak</w>
ne wpor
ne gli
natur aliz
n pr</w>
n po</w>
n cre
sy ncre
n ak</w>
my thic
mul tiplay
mul tan</w>
mon tes
mon och
mo oris
mo dal</w>
min aliz
mil itaris
mic rowa
mic robi
mic robes</w>
mi xtu
mete orolog
mes si</w>
mes oameric
men tally</w>
mel odram
me ton
me time</w>
pri metime</w>
mas sivel
mar ía</w>
mar co</w>
mad hy
ma yel
ma stered</w>
m l
m cl
lu ís</w>
lu theranis
lu gg
lon don
loc khe
lo yalis
lo bes</w>
li fts</w>
li fic</w>
pro lific</w>
legi timi
lat tice</w>
lan gton</w>
lan ge</w>
la vi</w>
pah lavi</w>
la urasi
la os</w>
la fay
l va</w>
l ude</w>
l st
l lo</w>
l fon
ku omintan
kru pp</w>
kor olev</w>
kn ute</w>
kil ler
kam mu</w>
k əs</w>
k store
k son
k ram
k ot
k op
k his
si khis
k hin
k hi
k has</w>
k bac
kic kbac
k ay</w>
k au
k al</w>
jos eph
jo ints</w>
jac kson
j ā
j ut
j n</w>
j eric
j as</w>
it ol
it as</w>
it aries</w>
is thmus</w>
is se</w>
is sa</w>
is odi
is il</w>
is id
is ha</w>
is aiah</w>
ir rigat
ir rever
ir ra
intr acel
inter play</w>
inter dic
inter collegi
inter ces
instru ctor</w>
infl ection
incre dible</w>
in vin
in son</w>
in oza</w>
sp inoza</w>
in nipi
qu innipi
in justice</w>
in ius</w>
in ghouse</w>
in fil
in et
in eat
in dler</w>
in dle</w>
sp indle</w>
in conclusive</w>
in cit
im plicitly</w>
im perfec
il ler</w>
il le
il for
il et</w>
to ilet</w>
ie ee</w>
ic us</w>
ic io</w>
i geneti
i ec
hy dro</w>
hum orou
ht ml</w>
hon orable</w>
hom etow
hi din
hel p·info</w>
hea vy
has kal
har tfor
har dships</w>
har dshi
ha zrat</w>
h tt
h trap
ras htrap
h ri</w>
h ran</w>
h hochsch
h c</w>
h 1</w>
gu stan</w>
gu of
gro undwor
go verns</w>
gh mc</w>
ge tt
ge tar
ve getar
gan su</w>
gam ma</w>
gag arin</w>
g ón</w>
g é
g ène</w>
g les
g 'an</w>
fur nishin
fur nished</w>
fro ssar
fre ehol
fran cop
for erun
for ded</w>
foo twear</w>
foo thol
fol klor
fla wed</w>
fl uor
fi reworks</w>
fi bro
fe ud</w>
fac hhochsch
f um
f th
fi fth
f tbal
so ftbal
f om
f lar
f gan
wol fgan
f bs</w>
f .
ex tor
ex eter</w>
ex commun
eu gène</w>
es se</w>
es ne</w>
er lan
er ior</w>
st erior</w>
po sterior</w>
er ian</w>
er boo
pow erboo
er bac
equ aliz
ep isodi
ep igeneti
enter tainin
en tou
en tire
en tan
en ta</w>
en se
en olog
en ko</w>
en iac</w>
en alis
phenom enalis
em pted</w>
em issar
em eral
em arks</w>
el lan</w>
el ective</w>
ed onian
mac edonian
ec tator</w>
sp ectator</w>
ec ho</w>
e tor
e odo
th eodo
e hr
du mp
distingu ishable</w>
discer nible</w>
dis tillati
dis ruptive</w>
dis perse</w>
dis liked</w>
dis appointmen
dis appointin
dic ken
di recti
di os</w>
di ophil
di gr
destro yer</w>
der éon</w>
der og
den um</w>
den otes</w>
den ominat
del aun
dec ompressi
dec oder
de wey</w>
de oc
vi deoc
de fil
de fected</w>
de aler</w>
dan ubian</w>
dan ny</w>
d va
d oo
d nance</w>
or dnance</w>
cru stac
cou rt
cor rupted</w>
cor inth</w>
con urbati
con stable</w>
con ca
com pa
col umnis
co vis
dis covis
co stel
co hor
co hen</w>
co bb</w>
co bacteria</w>
my cobacteria</w>
cli mb</w>
cl opædi
ency clopædi
ci ence</w>
ch uk
ch scre
tou chscre
ch ords</w>
ch men
ch iti
cel ibac
cau tiou
cas sette</w>
car ta</w>
cap tives</w>
cap itol
cal hou
cab aret</w>
c um</w>
c ram
c fl</w>
c ca</w>
c actu
bus hi</w>
bur ne</w>
bun dle</w>
bri ghter</w>
bre zh
bre eder
bran dt</w>
br yan
br unei</w>
boo kstore
bom bay</w>
bo tsw
bl ockbu
bit umin
bic ameral</w>
bi vor
her bivor
bi thyni
bes sarabia</w>
benefic iaries</w>
ben ign</w>
bec ue</w>
bat tist
bar tol
bar ometer</w>
bar becue</w>
bar bad
b sk
b s
b ris
b cul
su bcul
b cl
su bcl
b bon
b ast
b '
au gustan</w>
au diophil
au ction</w>
at tal
at ings</w>
at as</w>
at aliz
pal ataliz
asph alte</w>
as ticis
as qu
as onic</w>
as ca</w>
as antr
pe asantr
arist ocrat
ar tz</w>
qu artz</w>
ar ry</w>
ar re</w>
ar mée</w>
ar ke</w>
cl arke</w>
ar enas</w>
ar eg</w>
tu areg</w>
ar cati
dem arcati
ar cat
dem arcat
ap tist</w>
ap tist
ap ollon
ap olitan</w>
ne apolitan</w>
ap odi
par apodi
angl icanis
anab aptist</w>
anab aptist
an um</w>
an thoc
an teceden
an sliterat
tr ansliterat
an scription
tr anscription
an scontinental</w>
tr anscontinental</w>
an num</w>
an non</w>
an eou
an dy</w>
an cer
ch ancer
an ak
am iner</w>
ex aminer</w>
am ak
alum nus</w>
al li</w>
al iyah</w>
al itative</w>
qu alitative</w>
al itarian
eg alitarian
al gon
al gi
al eu
air planes</w>
ai ken</w>
ag pa</w>
ph agpa</w>
aff lic
af forded</w>
adver tiser
adver tised</w>
ade quatel
ad sheet</w>
bro adsheet</w>
ad iction</w>
contr adiction</w>
ad emarks</w>
tr ademarks</w>
ac ron
ac kn
bl ackn
ac eshi
sp aceshi
ac ental</w>
pl acental</w>
ac ements</w>
ac custom
ab olic</w>
par abolic</w>
ab itur</w>
ab asca</w>
ath abasca</w>
a oti
ch aoti
a ke
a jec
tr ajec
a at</w>
9 2.
7 ′
7 8s</w>
7 60</w>
7 37</w>
7 20</w>
7 0.
6 7.
6 56</w>
6 20</w>
6 000</w>
5 25</w>
5 18</w>
4 95</w>
4 8
4 65</w>
4 19</w>
4 01</w>
3 65.
3 11</w>
3 0th</w>
20 30</w>
2 67</w>
2 55</w>
2 34</w>
2 33</w>
2 19</w>
17 77</w>
17 61</w>
17 55</w>
17 27</w>
17 20</w>
17 01</w>
16 :9</w>
16 40</w>
15 25</w>
10 .2</w>
1 19</w>
1 10
- -</w>
″ w</w>
ṣ a</w>
м о
к и
е ́
κ λ
κ α
ι ος</w>
η ς</w>
ί α</w>
ˈ m
ə r</w>
ł aw</w>
ī ng</w>
ā tman</w>
í guez</w>
ê s</w>
è vre
z vou
z um
z oo
z ia</w>
z ger
z el</w>
z ambi
z ai
yan gon</w>
y z</w>
y y</w>
y ophy
y mer</w>
y fl
y eshi
y en</w>
xx xx</w>
x v</w>
x uan
x ton</w>
x ro
x er
x avi
ww w.
wor ry</w>
wor kable</w>
wit ch</w>
wi gan</w>
west inghouse</w>
we tter</w>
we hr
wat chman</w>
war shi
w man</w>
w af
w ac
vos kho
vo ivo
vis igo
vis hn
vin dic
vic ker
vi vor</w>
vi ours</w>
vi gil
ves icles</w>
ver nal</w>
val ais</w>
vai śe
va ultin
v oo
v hf</w>
v h1</w>
v eigh</w>
v ec
v ac</w>
us pic
us her</w>
us da</w>
ur rin
under stands</w>
un suitable</w>
un satur
un identifi
un broken</w>
uma yya</w>
ultr asonic</w>
u. s.
u is
u de
u cl
u ci
u bad
u alis
typ ifi
tur bo</w>
tu tel
tt lem
tro ut</w>
tro jan</w>
tri bhu
tri angular</w>
tr yp
tr ench</w>
tr ator</w>
tr aju
tr agic</w>
to ys</w>
to xin</w>
tion atel
ti zo</w>
ti tur
ti tor</w>
ti tiou
ti pli
ti mor</w>
ti mber
ti ly</w>
ti lle</w>
ti gas</w>
thin ker</w>
th yl</w>
th ographi
th ium</w>
th ay
th aw
th alas
ter osexual
ter ned</w>
ter iop
ten dai</w>
tem po</w>
tel ler</w>
tel etyp
te trap
te hran</w>
tan tal
tan go</w>
tag onist
ta ipe
t wer
t v
t se</w>
t ne
t mo
t life</w>
t gas
sur vivor</w>
suppl ementati
super star</w>
super speed</w>
su pr
su mat
su lfon
su ites</w>
su eb
stri pes</w>
st se
st ov
st erlin
st eer
st as</w>
st aphy
st ag</w>
st acks</w>
sp ran
sp ore
sp ies</w>
sp ider
sp hen
sp ectro
sou thside</w>
sou nded</w>
sou ls</w>
smo ky</w>
sk ipp
sk ip</w>
sin gly</w>
sin cer
simul taneit
si ves</w>
si stenci
si rte</w>
si mmon
si dne
si da</w>
sh um
sh uff
sh rap
sh ram
sh outed</w>
sh opper
sh ogu
sh ockle
servic emen</w>
ser vius</w>
ser mon</w>
sen sibil
se tu
scro lls</w>
sch indler</w>
saskat chew
sam sar
sa ka</w>
s èvre
s oo
s las
s l</w>
s ca</w>
s atlan
ru then
ru ptly</w>
ru dy</w>
ro vis
ro ts</w>
ro ix</w>
ro dri
ro dr
ro chest
ri ya</w>
ri ga</w>
resp ectable</w>
resi stor</w>
rese ttlem
ren ounced</w>
rele gati
rela xati
refl ector
re voc
re tire</w>
re tion
sec retion
re ssin
st ressin
re mon
re jo
re ign
re gón</w>
re design</w>
re bran
ran ny</w>
ty ranny</w>
ra khin
r ys
r w</w>
r ha
question nair
qu arry</w>
q i
q ad
pā ṇin
pro vo</w>
pro cal</w>
reci procal</w>
privat eer
pri vac
pri oriti
pol ymer</w>
pol io</w>
po thesi
po stse
play wrigh
pl ined</w>
pl ey
pl eur
pl ets</w>
pl atonic</w>
pl anter
pl anat
photo grapher</w>
philosop hus</w>
phenom enolog
perpe trator</w>
per tin
per ry</w>
per ium</w>
per ished</w>
per fected</w>
per cas
up percas
pen dul
pe do
pat terned</w>
par ted</w>
par och
par nas
pap ua</w>
pan da</w>
p ʰ</w>
p ère</w>
p pu
ow les</w>
ow able</w>
over too
ou tgas
ou tbur
ou ses</w>
ou ral</w>
vi oural</w>
ou ncin
os som
os sa</w>
os mit
os kar</w>
os au
orph anag
or ator</w>
op pressi
op ods</w>
op hag
oo dles
on yms</w>
on ography</w>
on is</w>
on ges</w>
sp onges</w>
on air
om nis
om bi
ol ition
ol ishin
ol eto</w>
sp oleto</w>
og nath
oc ots</w>
oc can</w>
ob regón</w>
o op
o inted</w>
o h
o group
pl ogroup
o dd
o a
ni ke</w>
ni gel</w>
neuro logic
ne wman</w>
ne war</w>
ne ge
nas da
nan ume
n w</w>
n side</w>
n le
n go</w>
n dic
sy ndic
n ay
n ar</w>
n adi
mul tipli
mu zz
mu ja
mos ses</w>
mor occan</w>
mon ton</w>
mon tmar
mon tag
mon oxide</w>
mon ocots</w>
mon asticis
moder ne</w>
moder atel
mo zambi
min oan</w>
mil ie
mi dbra
mes tizo</w>
mes senger
me thyl</w>
me des</w>
mc veigh</w>
mat rilineal</w>
mas sal
mar ital</w>
mar ies</w>
mar iah</w>
man oeu
man ium</w>
mal function
mal achit
mag netism</w>
ma yfl
ma xi
ma hmu
m ö
m wel
m pan
m onal</w>
m bed</w>
lu oyan
lu minance</w>
lu ft
lu bric
lo vak</w>
lo gan</w>
lis hed</w>
lin kag
lin ger
lic hen</w>
lic ense
liber ius</w>
li thium</w>
li gat
li ded</w>
lepi dopter
le vin</w>
le hman</w>
le ep</w>
le af
la zar
l ü
l way</w>
l ol
l dly</w>
wor ldly</w>
l borough</w>
mar lborough</w>
ko dak</w>
kn owles</w>
kn esse
kil ometer</w>
kil ogr
k w</w>
k tapur</w>
k ta
k rit
pra krit
k ian</w>
k hat
k ered</w>
k dro
ju gur
jo vi</w>
jag uar</w>
j ī</w>
j pat
ra jpat
j kavi
ka jkavi
j et
j ed
j ais
j ain</w>
j ah</w>
iz ho
it orial
islam abad</w>
is se
is fa
is eu
ir min
ip tv</w>
inter twined</w>
inter red</w>
inter lac
inter course</w>
inter acts</w>
instru ctor
ines swom
indi ra</w>
incon sistenci
in ton
in hu
in gra
in frac
in flo
in eph
in dem
in bo
ra inbo
in ar</w>
in acces
impe achmen
im agined</w>
il ings</w>
ide ologi
ide ogr
ide aliz
ic os</w>
ic os
ic onography</w>
ic ion</w>
susp icion</w>
ic id
ic em
ian zen</w>
naz ianzen</w>
i uc
i ko</w>
i be</w>
i arit
il iarit
i ae</w>
i 2
hy pothesi
hus sain</w>
hor rible</w>
hor monal</w>
hom elands</w>
hic kor
hel ium</w>
he terosexual
har uspic
hab itati
ha up
ha ploid</w>
ha plogroup
h te</w>
h ron
h no
h hc</w>
gu yan
gl yco
gi uli
gh nes
tou ghnes
ger ously</w>
ger manium</w>
gen oa</w>
gen eralis
gati onalis
gam etes</w>
g ze
g standin
lon gstandin
g ps</w>
g loc
g l</w>
g don
g de</w>
g bo</w>
nin gbo</w>
g bo
g am</w>
g ak
fun ny</w>
fu tile</w>
fligh tles
fit zger
fer gus
fe ather</w>
fav ourin
far ewel
fam iliarit
f yan</w>
su fyan</w>
f us</w>
f ten
so ften
f p</w>
expon entially</w>
ex trav
ex traju
ex tracts</w>
ex planat
ex hor
ex erted</w>
ex changin
ew sk
ev ision
tel evision
eth non
est udi
est ingly</w>
inter estingly</w>
est ead
hom estead
est adi
es us</w>
es so</w>
es ap
er vis
las ervis
er sed</w>
sp ersed</w>
inter spersed</w>
er pro
wat erpro
er ns</w>
er men
er les
er il
er ially</w>
mat erially</w>
er ced</w>
er ab
eph esus</w>
ep ineph
en tom
en tice</w>
en te
en ic</w>
en ic
en hei
en hag
en ha
en gul
en doc
empow ermen
embel lished</w>
em undo</w>
tel emundo</w>
em powered</w>
em eyer</w>
em ental</w>
suppl emental</w>
em body</w>
em akin
el ty</w>
el eton</w>
sk eleton</w>
el ects</w>
eis enac
ei kh</w>
sh eikh</w>
ed monton</w>
ed itorial
ec stati
ec ore
ec hten
li echten
ear ly
ea ke</w>
esap eake</w>
e yed</w>
e ul
e q</w>
e hal
e bol
e alth</w>
st ealth</w>
du bai</w>
dra fts</w>
dr illed</w>
do dger
divis ional</w>
distri butor
dis sec
dis ruption
dis qualific
dis illu
dis connec
dis charged</w>
dis appointed</w>
dis able</w>
dis abilities</w>
diph theria</w>
din ger</w>
schrö dinger</w>
di olog
di ad
des egre
der ic</w>
der fu
won derfu
depen dency</w>
den otin
den ial</w>
dem ographic
dem ocrit
del ineat
del eted</w>
dec iph
de zvou
ren dezvou
de us</w>
de formati
de fective</w>
dar ken
dan gerously</w>
d ō</w>
d ée</w>
d som
d c
cé zanne</w>
czechos lovak</w>
cur ios
cro mwel
cre tan</w>
crac kdow
cou sin
cop enhag
contr actu
contr action</w>
constru cts</w>
congre sses</w>
congre gationalis
conce almen
con ser
con nau
con dom
con da</w>
gol conda</w>
con cil
compe titor</w>
com otion</w>
lo comotion</w>
com inter
col lided</w>
col iseu
coc kro
co tt</w>
co ales
co achin
co ached</w>
cli mbed</w>
cl ub
cl odi
cl inic</w>
cl assifyin
ci xi</w>
ci plined</w>
ci ocultur
so ciocultur
chri stolog
chore ographed</w>
chap elle</w>
ch rys
ch ry
ch ez</w>
ch esapeake</w>
ch arted</w>
ch antin
ch amps</w>
cas san
car bi
can aan</w>
cam ille</w>
cal yp
ca vities</w>
c et</w>
bus inesswom
bu ck</w>
bre wer</w>
bran tfor
bra zil
bou nds</w>
ble edin
bl ossom
bl oodles
bi ore
bha ktapur</w>
ber ingi
ber gen</w>
ben gal
bel la</w>
beha viours</w>
beha vioural</w>
be tt
gam bett
be dou
be dfor
bar rag
ban ished</w>
bal och
bac teriop
bac kdro
b ö
b ted</w>
b ster</w>
b olic</w>
b lake</w>
b ican</w>
b f
b ac</w>
az zi</w>
az iz</w>
av enger
auto biography</w>
attor neys</w>
atten dants</w>
ati har
pr atihar
at tainin
at ography</w>
em atography</w>
cin ematography</w>
at oes</w>
tom atoes</w>
as wan</w>
as tically</w>
as signin
as leep</w>
as exual</w>
as co</w>
as cer
ar tigas</w>
ar tan</w>
sp artan</w>
ar re
ar lan
ar jun
nag arjun
ar ides</w>
ch arides</w>
ar ger
ar co
appe tite</w>
ap portion
ap onry</w>
we aponry</w>
ap ache</w>
anti body</w>
anal yze</w>
an um
an twer
an ta
an sh
an satlan
tr ansatlan
an ointed</w>
an nis</w>
an gze
aur angze
an gou
an as
am works</w>
dre amworks</w>
alem anni</w>
al tr
al ta
al sis</w>
perist alsis</w>
al lmen
inst allmen
al ha
al ex</w>
al at
ak os</w>
ag uil
af raid</w>
aer osmit
ad dis
acqu ies
ac án</w>
ac tium</w>
ac table</w>
ac ru
ver acru
ac rest</w>
se acrest</w>
ac om</w>
vi acom</w>
ac iat
gl aciat
ab olition
a we
a jan</w>
a ja
a es</w>
a eg
a an
a 4</w>
a 1</w>
9 99</w>
9 10</w>
8 60</w>
8 3.
8 06</w>
7 74</w>
7 4.
6 46</w>
6 41</w>
6 36</w>
5 90</w>
5 75</w>
5 70</w>
5 49</w>
5 48</w>
5 35</w>
5 0th</w>
4 60</w>
4 35</w>
4 10</w>
3 54</w>
3 43</w>
3 28</w>
3 07</w>
2 88</w>
2 71</w>
2 69</w>
2 65</w>
2 52</w>
2 47</w>
2 44</w>
2 41</w>
2 36</w>
2 29</w>
2 21</w>
17 69</w>
17 68</w>
17 64</w>
17 48</w>
17 40</w>
17 22</w>
16 83</w>
16 37</w>
16 30</w>
15 .2</w>
13 68</w>
12 2nd</w>
0 07</w>
0 000</w>
. t
. 8
⟩ .</w>
− 1</w>
− 18</w>
⁄ 3</w>
ṣ ika</w>
т о
ск ая</w>
з а
в е
а л
ο ν</w>
ο ί</w>
γ έ
έ λλ
ά ν
̍ h</w>
ʰ ⟩</w>
ś up
ł a</w>
ā ṇa</w>
ā z
ā b</w>
ü nd
ô me</w>
ó w</w>
ê me</w>
é riel</w>
é mi
è nci
æ n</w>
á ci
zo diac</w>
z ni</w>
z ko</w>
z al</w>
z ac</w>
yu kon</w>
ysac charides</w>
yor ktow
ym bioti
y ur
y tics</w>
y theis
y sed</w>
y ro
y ot
y ol
y ff</w>
y den</w>
y b</w>
y ap
y ad</w>
x viii</w>
x bur
x 86</w>
wil dfi
wi ka</w>
west quay</w>
west ernmos
west erly</w>
wel ler
wea kly</w>
wal tz</w>
w sin
w ran
w ab
vit ae</w>
vis ib
vin ov</w>
vin acci
vic hy</w>
vi ven
vi va</w>
ver gil
ven dée</w>
ven dor</w>
van dalis
val ides</w>
vaiśe ṣika</w>
va ulted</w>
v ía</w>
v ri
v ector
v br</w>
v 2</w>
v &
ut tar</w>
us tion</w>
ur ian</w>
ur gi
upl oad</w>
up ta</w>
univer sal
under abad</w>
un usable</w>
un us
un tou
un ter
un ten
un question
un officially</w>
un lawfu
un intelligible</w>
un dul
un controlled</w>
um vir
ul ster</w>
ul ls</w>
ul le</w>
ul ative</w>
u. s.c.</w>
u tilis
u ja</w>
u cc</w>
u bay
tur ntab
tur nou
ts dam</w>
tro ubad
tri umvir
tri angles</w>
tri ad</w>
tr aor
tr aal</w>
total itarian</w>
tom orro
to gr
to ga</w>
tin el</w>
ti ze</w>
ti vor
ti rin
ti pu
ti med</w>
ti lt</w>
ti lla</w>
ti gran
ti de
ti ces
th ophon
th ier
th go
th ex</w>
th eon</w>
th ban
th away</w>
ter hor
tel sman
techn icol
te dnes
tar im</w>
tar iff
tac kled</w>
tac kle</w>
ta xi</w>
t ā</w>
t sp
t phones</w>
t onal</w>
t liftin
t growth</w>
t flo
t clubs</w>
t bul
t breaks</w>
sy nop
sy lvest
sw abian</w>
suscep tibil
sur mounted</w>
stron esi
st uff
st os</w>
st nes
st ernmos
st erly</w>
st eril
st ake
sp ouses</w>
sp oil
sp acetime</w>
sou thban
sou lfu
sol os</w>
so ver</w>
so oner</w>
so cializ
smar tphones</w>
sin les
si onalis
si mi
si me
si lva</w>
si lt</w>
si ds</w>
sh unga</w>
sh annon</w>
ser vit
ser oton
separ atism</w>
sen tinel</w>
sen sin
sem inar</w>
sel fri
sec underabad</w>
se win
se eded</w>
se dan</w>
se apl
se aboar
sci arra</w>
sch wei
sch nel
sch isms</w>
scen ario
sav anna</w>
san t'
san chez</w>
salvad oran</w>
sa wa</w>
sa arlan
s ā</w>
s under
s th
s sfu
s min
s f</w>
s &
run away</w>
ru ben</w>
ro xbur
ro vi
ro ver
ro ster</w>
ro stat</w>
ro sses</w>
ro shima</w>
ro processor
ro mag
ro ller</w>
ro lab
ro fil
ro es</w>
ro bu
rin gen</w>
ric ky</w>
ri ppl
ri igi
ri dor
ri bbon
ri aa</w>
reta iner
ren ew</w>
ren eg
regi mental</w>
regi erun
recei pts</w>
re tirin
re ssfu
st ressfu
re pressive</w>
re pos
re id</w>
re fun
re fighter</w>
re eds</w>
re dst
re dre
re ctifi
re ch
ran ty</w>
war ranty</w>
ral lyin
rac ke
rac hel</w>
rab bis</w>
ra zed</w>
ra ja</w>
ra im
ra fa
r k</w>
r fc</w>
r bi</w>
q ul
progr ammable</w>
pro val
pro stag
pro cu
pro cop
pro bati
pri vat</w>
pri maries</w>
premi ershi
pre ssor</w>
pre occup
pre lude</w>
pou nder</w>
pol ytheis
pol ities</w>
poc itos</w>
po tsdam</w>
po achin
pl ym</w>
pl ym
pl uto</w>
pl ough</w>
pl eten
pl enty</w>
pl ative</w>
pl anal
pit aliz
pic kup
pi pp
pi az
philosop hes</w>
ph eres</w>
per ta
per fection
per dic
per bolic</w>
pen hei
pe arson</w>
pat terson</w>
pas sover</w>
pas sionat
par thian
par odi
pan dem
p stea
p n
p ms</w>
p ligh
p io
p ge
p fu
p ff
p d</w>
p cm</w>
over ride</w>
over ran</w>
ou tpo
ou tgrowth</w>
ou tflo
ou ter
ou tbreaks</w>
ou dy</w>
os bourne</w>
organ och
or thophon
or thographi
or tes
sh ortes
or ophy
sp orophy
or io</w>
or ge
or entin
or am
pan oram
or alis
or ai
opter yx</w>
op py</w>
op penhei
op ho
op erab
oo tings</w>
sh ootings</w>
on so</w>
on sive</w>
resp onsive</w>
on ocl
on erat
on enes
on ai
on .co
om pos
om ial</w>
ol ig
ol ae</w>
ogr apher</w>
off ender
off ences</w>
oc ker
ob serves</w>
o yal
o vis</w>
o te
o ta
o stri
o kings</w>
o gh
o em
o don
o centri
nor bu</w>
no vo</w>
no des</w>
ni val
ni eu
ni emeyer</w>
ni eder
ngu esso</w>
nes sy</w>
ne gi
nar rower</w>
nag asak
n z</w>
n ut
n ude</w>
n en</w>
n atel
mu staf
mu barak</w>
mu amma
mou nds</w>
mor tal</w>
mon keys</w>
mon iou
mon ey
mo reau</w>
mis concep
min gbir
min escen
mil lar
mil lan</w>
mil itariz
mic roprocessor
mic rofil
mi xes</w>
mer ovin
men se</w>
men ander</w>
mem oir</w>
me uc
me ta</w>
me gaf
mat ériel</w>
mat terhor
mar sh</w>
mar red</w>
mar iolog
mar cel
man tled</w>
mal iciou
mag ellan</w>
mag dal
mad ras</w>
mac millan</w>
ma uriti
ma kta
ma jus
ma inlin
m ²</w>
m x</w>
m t.</w>
m st
m nes
m min
m maker</w>
m cle
ly sis</w>
lud wika</w>
lu minescen
low shipp
lon gwoo
loc occus</w>
staphy lococcus</w>
lit vinov</w>
li onair
li onai
li mas
li kes</w>
li fyin
li ais
le win
le vin
le te</w>
la wton</w>
la ugh
l ême</w>
l yon
l ps</w>
l man</w>
l las</w>
kir tipu
kh tar</w>
kag yu</w>
k wa
k pil
stoc kpil
k ot</w>
k lo
k lem
k las
k j
k hs</w>
si khs</w>
k hil
k go</w>
k est
jo kes</w>
jian gxi</w>
je weller
jamahi riya</w>
j us</w>
j it</w>
j c</w>
iz za</w>
it ya</w>
it us</w>
it ehal
wh itehal
is dn</w>
ir le
sh irle
ir anian
invol untar
inves titur
inter stel
inter operab
instru mental
incl inati
inci dentally</w>
in ya</w>
in valides</w>
in tolerance</w>
in sol
in ger</w>
in ees</w>
in eer
in dispen
in ca</w>
in atel
predom inatel
in active</w>
im plosi
im perium</w>
im pen
im mu
im mense</w>
il ip
ph ilip
il ee</w>
ij āz
ien tial</w>
icel andi
ic ure
ic um</w>
ic onocl
ic hth
ic ha
ic alis
i van
i ut</w>
i uma
i ga</w>
i fin
sem ifin
i eg
i bu
i bi
hy perbolic</w>
hum mingbir
hu mankin
ht ml
hos pitaliz
hom icides</w>
hom eric</w>
hol ocen
hohen zol
ho dg
his ticati
sop histicati
hi roshima</w>
hi mur
nis himur
hi iuma
hi ba</w>
tos hiba</w>
her odo
hel ix</w>
he isenber
he gel
he dge</w>
har lal</w>
wa harlal</w>
ja waharlal</w>
han dsom
ha thaway</w>
h. 264</w>
h ō
h ue</w>
h si
h sen</w>
sac hsen</w>
h ras
h mon</w>
ra hmon</w>
h mir
kas hmir
h med</w>
me hmed</w>
h ev
gur jar
gu jar
gre eted</w>
gre enber
gol kon
gla diator</w>
gl ued</w>
gl oria</w>
gin kgo</w>
gh um</w>
sor ghum</w>
gh tliftin
wei ghtliftin
gh tclubs</w>
ni ghtclubs</w>
ger maniz
ger mania</w>
gem ein
gel ug
gan dhar
gal ois</w>
gal ilee</w>
ga ulle</w>
g zhen</w>
g yin
g xi
g sle
g shi
kin gshi
g r</w>
g pc</w>
g orge</w>
g op
g mas</w>
g lit
g ko
g gu
g gi
g em</w>
g com
ni gcom
g adi
g 3</w>
fro gs</w>
fre ein
frag mentati
for ce
for ay
foo tpr
flo tte</w>
luft flotte</w>
fl orentin
fl oppy</w>
fil mmaker</w>
fil lmen
ful fillmen
fi refighter</w>
fi eldin
fer mi</w>
fel lowshipp
fe eder</w>
f si
f og
f ag
exper iential</w>
exha ustion</w>
ex trap
ex empted</w>
ev olence</w>
ev oke</w>
ev el</w>
eu rostat</w>
eu pon</w>
eth nol
es timati
es men</w>
es .:
er way</w>
wat erway</w>
er way
wat erway
er ri
er re
er or
er nar
er lit
st erlit
er ian
er cel
fi ercel
ep icure
enthusi astically</w>
englis hman</w>
endos ymbioti
en writ
scre enwrit
en st
en nobl
en la
en gel
en ey</w>
en dles
en at
en actin
em ption
ex emption
em ptin
em ically</w>
el oc
el lo</w>
el le
el ium</w>
el isha</w>
el ian</w>
eg smar
kri egsmar
ecli pses</w>
ec tfu
resp ectfu
ec kin
ec ker
ec hin
ec hel
ear thly</w>
ear marked</w>
ea sternmos
e ye
e works</w>
e tor</w>
e tle</w>
e os
e opter
e factor
e ep
e bellum</w>
dy lan</w>
du qu
du jian
du ctor
intro ductor
dra ftin
downlo adable</w>
dor chest
divis ive</w>
diver sify</w>
dis suad
dis putati
dis mantled</w>
dis gus
dis fellowshipp
dis comfor
dis ciplined</w>
din osau
digi volution</w>
dic ots</w>
di yya</w>
di tives</w>
di rt</w>
di os
di mor
di gi</w>
di ggin
di eti
di electr
di bil
der ric
der nes
den tist
dem os</w>
dem ography</w>
dem odul
dem obil
defen dants</w>
dec ompos
dec las
dec ca</w>
de pressed</w>
de pop
de ot
vi deot
de generat
de fore
de duced</w>
de ar</w>
d' alem
d −</w>
d īn</w>
d wil
goo dwil
d th
d stein</w>
gol dstein</w>
d mca</w>
d ma</w>
d la</w>
d l
d hi
d dis
re ddis
d cu
d bridge</w>
d .:
cru yff</w>
cru elty</w>
cro wns</w>
cre mat
cre eds</w>
cre atur
cou ver</w>
van couver</w>
cor tes</w>
cor ridor
cop ra</w>
contem plative</w>
concor dat</w>
con stance</w>
con ner</w>
com press</w>
co val
co elom
co don</w>
co dific
co dec
co bal
co ahu
cli ffor
cl ovis</w>
cl oudy</w>
cl ostri
cl ines</w>
cl icks</w>
cl aris</w>
ch ip
ch ineal</w>
co chineal</w>
ch ew</w>
ch eta
ch eer</w>
ch ee
ch eckin
ch armin
ch arger
ch arco
ces co</w>
fran cesco</w>
cen traal</w>
cen ozo
cen ean</w>
my cenean</w>
ce tes</w>
cat enar
car nival
car negi
car men</w>
can dy</w>
can del
cam eo</w>
cal ories</w>
cal cut
cab bag
c ée</w>
c te
indu cte
c py</w>
c ne
c em</w>
c 2</w>
by ron</w>
bur nle
bu tter</w>
bu bbl
bro okings</w>
bro kered</w>
bri ghtly</w>
bri gan
bri gadi
bri dizati
hy bridizati
bre wed</w>
bra kes</w>
body builder</w>
bo xed</w>
bli zzar
ble acher
bl enhei
bil lings</w>
bi ddin
ber telsman
ber shop</w>
ber ne</w>
ber ksh
ber et</w>
ben evolence</w>
ben efactor
bel fas
be hes
be he
be etle</w>
bar re</w>
bar dy</w>
lom bardy</w>
bar bershop</w>
ban quet</w>
ban dry</w>
hus bandry</w>
ban da</w>
ban anas</w>
bal tica</w>
bal ah</w>
kab balah</w>
bac teriolog
bac illi</w>
ba hman
b titled</w>
su btitled</w>
b stati
su bstati
b lat
b l</w>
b hā
b gen
su bgen
b duction</w>
su bduction</w>
b by
b bs</w>
b ance</w>
distur bance</w>
av oids</w>
author isati
au stronesi
au sterlit
atten uat
atmos pheres</w>
ath lete</w>
at tes
at ro</w>
at onem
at kin
at eur
ast rology</w>
ast rolab
assem blin
as pi
as onally</w>
se asonally</w>
arist ocrat</w>
archae opteryx</w>
arch ivis
arch ean</w>
arch bishop
ar tworks</w>
ar tisan</w>
ar tile</w>
qu artile</w>
ar ns</w>
ar ma
ar kin
sp arkin
ar ify</w>
ar ca
ar am</w>
ar af
ap titu
ap provin
ap proval
anten na
ante bellum</w>
annou nce</w>
angou lême</w>
anal ytics</w>
an tó
an taneou
inst antaneou
an sit
tr ansit
an sc
tr ansc
an nah</w>
sav annah</w>
an id</w>
an g'an</w>
an er
an em
an cil
an an
amaz on.co
am yg
am sbur
li amsbur
wil liamsbur
am les
se amles
am ide</w>
am ian</w>
am ble</w>
pre amble</w>
am ar</w>
am antes</w>
gar amantes</w>
am ah</w>
albat rosses</w>
al mon
al gar
al gal</w>
al cal
ak ha</w>
hal akha</w>
air side</w>
air play</w>
ag onal</w>
ag itat
ag ein
aff irmin
aff ection</w>
aff ection
advan tageou
ad jou
ad itya</w>
ad istics</w>
cl adistics</w>
ad icts</w>
contr adicts</w>
ad dy</w>
ad ditives</w>
acqu itted</w>
acqu isition
accou ntable</w>
ac roix</w>
del acroix</w>
ac om
ac adi
ab rogat
ab lati
ab ide</w>
ab ar</w>
a thou
a ha</w>
a fro
a ev
a ether</w>
a at
a 3</w>
: 30</w>
9 8
9 40</w>
9 20</w>
9 0th</w>
8 80</w>
8 6.
8 59</w>
8 40</w>
8 18</w>
7 94</w>
7 9
7 8
7 40</w>
7 32</w>
7 30</w>
7 2.
7 0
6 :00</w>
6 6
6 4
6 29</w>
6 18</w>
6 02</w>
6 0.
5 8.
5 51</w>
5 46</w>
5 42</w>
5 34</w>
5 2nd</w>
4 86</w>
4 78</w>
4 58</w>
4 27</w>
4 02</w>
3 84</w>
3 75</w>
3 65</w>
3 64</w>
3 58</w>
3 40</w>
3 32</w>
3 26</w>
3 23</w>
3 15</w>
2 ⁄3</w>
2 h</w>
2 98</w>
2 97</w>
2 95</w>
2 93</w>
2 9
2 86</w>
2 79</w>
2 600</w>
2 54</w>
2 49</w>
2 46</w>
2 45</w>
2 32</w>
2 24</w>
2 18</w>
19 10s</w>
17 82</w>
17 79</w>
17 66</w>
17 54</w>
17 42</w>
17 35</w>
17 34</w>
17 29</w>
17 25</w>
17 18</w>
17 14</w>
17 13</w>
16 89</w>
16 82</w>
16 80</w>
16 38</w>
16 24</w>
16 18</w>
16 .5</w>
15 91</w>
15 81</w>
15 71</w>
15 67</w>
15 66</w>
15 59</w>
15 23</w>
14 35</w>
14 02</w>
13 48</w>
13 2nd</w>
12 .1</w>
10 0th</w>
1 b</w>
1 :00</w>
0000 0000
0 80</w>
0 37</w>
. or
' wi
ta 'wi
' ll</w>
' anic</w>
qur 'anic</w>
' a</w>
& m</w>
ṣ ṭ
ṃ sā</w>
р и
ρ ε
ο μ
ο ι</w>
κ τ
θ ε
α ς</w>
ː z</w>
ː r
ˈ ɡ
ˈ k
ʻ ah</w>
ɪ .
ǎ o</w>
š tokavi
ō e</w>
ī l</w>
č ek</w>
ā pā
ā da</w>
ü e</w>
í ci
é â
é u</w>
é tien
é ric
é ra</w>
é glis
é es</w>
ç ão</w>
ç ais
æ n
ä h
â tea
à ng</w>
ß e</w>
× 10</w>
zhen gde</w>
z stan</w>
z quez</w>
z os</w>
z in</w>
z dal</w>
yar dag
y up
y techni
y sk
y ploid</w>
y osaur
y orit
y olog
y mi
y es
y dou
y de</w>
y cin</w>
y ch</w>
y can</w>
y b
y av
y anin
y ance</w>
x p</w>
x o</w>
x il
x ide</w>
wil lfu
wil lett</w>
wil kinson</w>
wil dly</w>
wil dernes
wil dcar
wi elded</w>
wh oop
wh ist
west erns</w>
wen zho
war ped</w>
war ehouses</w>
wal lis</w>
w thor
w ster</w>
w r</w>
w ne
w maker
w es</w>
vol ody
vis itati
vis ion
vis cos
vis cer
vir ulence</w>
vir gil
vin tag
vil li</w>
ver tly</w>
ver ne</w>
ven ge
vel vet</w>
ve tter</w>
van uat
van illa</w>
val uati
v ée</w>
v onia</w>
v ni
usef ulnes
us sur
us gs</w>
ur ya</w>
ur nin
ur itania</w>
up lift</w>
uniqu enes
unifor mly</w>
un satisfactor
un resol
un recognized</w>
un natur
un nam
un le
un happy</w>
un ged</w>
un fur
un finished</w>
un earthed</w>
un dy</w>
un du
un din
un dai</w>
un condition
un armed</w>
un am</w>
un accompan
ul ric
ub ünd
u z</w>
u v
u um
vac uum
u ti
u pro
u gle</w>
u fu</w>
u ds</w>
u do
u der
u dat
u co
u cle
u c</w>
tw ain</w>
tur keys</w>
tu va</w>
tu rous</w>
ts .t
tro chop
tri tium</w>
tr ude
tr icol
tr icle</w>
ven tricle</w>
tr icks</w>
tr ax</w>
tow ne</w>
total itarian
tor pedo
tor atum</w>
tom ás</w>
to dd</w>
tin ker</w>
ti zati
ti tas
ti sms</w>
ti ps</w>
ti pp
ti po
ti lsi
ti lateral</w>
ti la</w>
ti ju
ti ff
ti aniz
thaw addy</w>
th éâ
th lan
th ion
th ines
th iev
th eop
th eir
th ec
th ea</w>
th ap
test ost
ter rifi
ter nes
ter istically</w>
ten uou
ten och
tem plum</w>
techn isch
te tan
tar tar
tan ker</w>
tan ak
ta verns</w>
ta ifa</w>
ta fsi
t ú
t á
t vas</w>
t time</w>
t tan
t tal</w>
t spoken</w>
t sol
t so
t sider</w>
t parnas
t ocrati
t ler
t g</w>
t bo
sy rac
sw anse
sw amps</w>
sur realis
sur ges</w>
sur ged</w>
succes sivel
su zdal</w>
su squ
su mmed</w>
su le
su isse</w>
su ction</w>
steph anie</w>
stag nan
st wo</w>
st uy
st ortin
st modernis
st man</w>
st endo
st eer</w>
st eep
st ear
st eal</w>
st as
st andal
st anced</w>
sprin gbo
sp yin
sp aldin
sp acef
sou therner
son gha
som mer
so far</w>
sk ulls</w>
sin op</w>
simp lifyin
si ven
si qu
si ghtin
si dad</w>
univer sidad</w>
si am</w>
shi py
shi eldin
shi elded</w>
sha anxi</w>
sh orted</w>
sh ellin
sh elle
sh ea</w>
sh alls</w>
sh allow
ser olog
sen sible</w>
sel im</w>
sel ection
se ydou
se wor
se ep
se bac
sch ut
sch les
sch iller</w>
sch ein
sc rapped</w>
san drin
san dber
sam anid</w>
sal yu
sal ah</w>
sa ṃsā
sa ussur
s wa
s pro
s ow
s ocrat
s ocks</w>
s ner</w>
s mol
s m
s gender</w>
s cuba</w>
s co</w>
rur ik</w>
ru thles
ru dder</w>
ru bble</w>
ru bat
ron aldin
robo ts.t
ro wlan
ro sse</w>
ro sis</w>
ro sem
ro sar
ro physic
ro mul
ro de
ro bor
ro be</w>
ro barometer</w>
ro am</w>
righ tfu
ric ia</w>
ric hel
ri otin
ri ka</w>
ri der</w>
ri bat
ri ac</w>
sy riac</w>
resu pp
resu mp
rest rained</w>
repl acements</w>
reli ef
regul arit
refer ees</w>
re transmit
re tive</w>
sec retive</w>
re tes</w>
sec retes</w>
re sby</w>
re pow
re pay</w>
re p.</w>
re lla</w>
re is
re incar
re group
re gn
re gal
re cy</w>
sec recy</w>
re counts</w>
re can
rati onally</w>
rati fy</w>
rat tles
ran dal
ram ento</w>
sac ramento</w>
ra zi</w>
ra vin
ra va</w>
ra ille
ra dios</w>
r wan
r tes
r mb</w>
r hon
r hen
r gy
r fu
r ar</w>
qu ities</w>
qu ented</w>
qu ea
qu arri
qa jar</w>
q ay
q ar
q an
pun ishable</w>
pro xy</w>
pro ven
pro ud
pro tr
pro tagonist
pro gen
pro cur
pre view
pre tty</w>
pre ter</w>
pre determin
pre aspir
prajñ āpā
pow erles
pou ndin
pos efu
pur posefu
por ph
por aneou
pol yun
pol ytechni
pol ymor
pol yest
pol aris</w>
po stmodernis
po real</w>
pl unged</w>
pl otyp
pl eton</w>
pl ei
pl eas</w>
pl ar</w>
pi pi
phosph orus</w>
ph us</w>
per ten
per cy</w>
per aments</w>
tem peraments</w>
peninsu lar</w>
pe ̍h</w>
pe pper</w>
pe jor
pay load</w>
pat ton</w>
pat ricia</w>
pashup atinat
par take</w>
par rots</w>
par ody</w>
par cel</w>
par aphy
pan ze
pan theon</w>
pan ned</w>
pan dit
pal áci
p ée</w>
p w
p ta
p sed</w>
p ps</w>
p l</w>
p indu
p f</w>
p f
p alis
p ac</w>
over shadow
over ridin
over haul</w>
ou tspoken</w>
ou tsol
ou tsider</w>
ou rfu
ou rab
ou pe</w>
ou lo
os mos
os mo
os man
os kel
os enes
os cl
os car
or ten</w>
sh orten</w>
or tcom
sh ortcom
or ships</w>
or is</w>
or gic
or acles</w>
op éra</w>
op to
op timu
op ian</w>
op hos
op han
op enha
sch openha
op ards</w>
oo dsh
on ographi
on in</w>
on id</w>
on id
on ey</w>
on et</w>
om sk</w>
om position</w>
om ph
om mis
ol din
ol di
o zin
organ ozin
o vul
o van</w>
o tre
o tr
o tag
sab otag
o stom
o stati
o in</w>
o hms</w>
o em</w>
o dol
o dil
o dic
num idi
nu kul
nor ton</w>
nor thampton</w>
nor ris</w>
nom inees</w>
no vic
no ds</w>
no ck</w>
nin gha
nic otin
nic kel
ni vore
ni uta
nec rosis</w>
ne oc
navi gable</w>
nati vit
nar rowed</w>
n ud
n tes
n sh
n r
n hil
n ants</w>
pen nants</w>
n ab</w>
mā ṃsā</w>
mī māṃsā</w>
my stics</w>
mul titas
mul tipo
mul tilateral</w>
mul berry</w>
mu ud</w>
mu te</w>
mu tan
mounta ineer
mor ton</w>
mor se</w>
mon tparnas
mon otre
mo ver</w>
mit raille
mis sal</w>
min us</w>
min orca</w>
mil iban
mi dgu
mes siah</w>
mer ril
men tin
men table</w>
men stru
men arch
mel anch
me zz
me yer</w>
me tad
me ist
me dioc
me dil
me dd
mathem atically</w>
mar vin</w>
mar shalls</w>
mandol inist
man um
man tu
man pad
man gan
mal tes
mal ak
mac roscop
mac mahon</w>
ma yan</w>
ma urya</w>
ma uritania</w>
ma jes
ma hal</w>
ma fi
ma diyya</w>
m sa</w>
m ra
m fp</w>
m dna</w>
m bur
m bon
tro mbon
lymph ocytes</w>
ly thgo
lu sign
lon gch
loc alities</w>
lo ggin
lin gly</w>
wil lingly</w>
lin ger</w>
li pp
li oz</w>
li mbur
li ence</w>
resi lience</w>
li bé
li aon
le tte</w>
le tian</w>
le ster</w>
le opards</w>
le onid</w>
le id
le gat
le ewar
le ap
le anin
le akin
lat ency</w>
las ker</w>
lar va</w>
lac rosse</w>
la wmaker
la dium</w>
pal ladium</w>
l wel
sti lwel
l shi
l din
l cd</w>
l c</w>
ky rgy
kin gst
kin gsle
ki ribat
ken ny</w>
kar im</w>
kar gy
k wor
k wis
k ut
k us</w>
k un</w>
k sw
k ris</w>
k op</w>
k ler</w>
k len
mec klen
k is</w>
k hei
k ham
k ha</w>
k gb</w>
k ear
k ati
k arac
ju ke
jos éph
jo yce</w>
jo han</w>
jes uit
j ī
j á
j pe
j iz
j il
j ia</w>
j han
j ev
j en</w>
j at</w>
j at
it ur
it ty</w>
it ta</w>
it la
wh itla
is son</w>
is per
wh isper
is onou
po isonou
is lington</w>
is hi</w>
is ha
is em
is chem
is able</w>
ir rels</w>
squ irrels</w>
inter rupt</w>
inter preter</w>
inter change</w>
infl ection</w>
in vi
in sofar</w>
in separ
in sensitive</w>
in road
in om
in ids</w>
in har
in gen</w>
in formin
in ets</w>
in en</w>
in dy</w>
in del
in cott</w>
lipp incott</w>
in aries</w>
sem inaries</w>
im practical</w>
im perman
im mat
im amah</w>
il men
il literat
il literac
il lati
il ion
pav ilion
il eries</w>
tu ileries</w>
il dbir
il co</w>
ichth yosaur
ic est
i ː
i yan
i y</w>
i var
i um
i pi
i per
i ja</w>
i j</w>
i gothic</w>
vis igothic</w>
i gen</w>
i ents</w>
i bo
i ap
i ac
hydro chlor
hy undai</w>
hy perten
hy drati
hum bol
hor sebac
hor muud</w>
hon ey
hom inids</w>
ho tom
hin kle
hi ther
hex agonal</w>
her oin</w>
her nan
her bal</w>
helveti sms</w>
hel pfu
he br
he aler</w>
has tily</w>
har nes
han thawaddy</w>
ham den</w>
ha ze</w>
ha wthor
ha plotyp
ha id
ha hoo
h á</w>
h wa</w>
h vc</w>
h ts</w>
h sh
h romati
h of</w>
h mi</w>
h men</w>
h ma
h ler</w>
h bu
h bo
gu ished</w>
gu illa
gro ves</w>
gri mm</w>
gre ener</w>
gra vel</w>
gra ubünd
gn isable</w>
reco gnisable</w>
gl ycan</w>
gin ian
vir ginian
gha zni</w>
gh ua</w>
gh ttime</w>
ni ghttime</w>
gh tlife</w>
ni ghtlife</w>
gh thoo
kni ghthoo
gh tfol
gh ted</w>
gh dad
ge orgic
ge orge
gal vest
g é</w>
g xu</w>
g sp
g sbur
g po</w>
g owns</w>
g mt</w>
g bit</w>
g ba</w>
g allow
fur nis
fun nel
fre quented</w>
fran çais
fou ca
for tu
for sa
for ks</w>
for gi
for get</w>
for ge</w>
flo yd</w>
fl ashin
fl ambo
fic ially</w>
super ficially</w>
fi repow
fi br
ff man</w>
fer rar
fer mentable</w>
fe udat
fav ourab
fav orab
fam ines</w>
fal sify</w>
fal sific
fal ek
f tist</w>
le ftist</w>
extin guished</w>
excl ave</w>
ex propri
ex position
ex oskel
ex onerat
ev sk
ev oked</w>
eu robarometer</w>
ett eville</w>
fay etteville</w>
eth nography</w>
es sionis
sec essionis
es py</w>
es ake</w>
nam esake</w>
er tin
er st
er rati
er pil
er oyal
vic eroyal
er ode</w>
er ner
er ne
er mas</w>
hab ermas</w>
er ium</w>
er is
er gy
er ges</w>
er de
epidem iolog
ep tor
nocic eptor
enter tained</w>
encl osu
en woo
en tices
en qu
en pe
gre enpe
en ots</w>
gu enots</w>
hu guenots</w>
en ke</w>
en ities</w>
en ig
en houses</w>
gre enhouses</w>
en et</w>
en dships</w>
fri endships</w>
empir ically</w>
embr yophy
embr yolog
em ophil
ha emophil
em il</w>
em iah</w>
jer emiah</w>
em erges</w>
em arked</w>
electr onically</w>
el oupe</w>
el len</w>
el lat
el isabe
el ias</w>
el etal</w>
sk eletal</w>
el ein
mad elein
el ap
ei ghtfol
ed dy</w>
ecli psed</w>
ec top
ec his
e tan
e play</w>
gam eplay</w>
e pl
e ost
e os</w>
e ocrati
th eocrati
e ker
se eker
e ka</w>
e jac
e j
e ger
e ge
e fin
e ek</w>
e de
e ba</w>
e 2</w>
du pon
du cti
dru pa</w>
phagmo drupa</w>
dre xel</w>
dre sses</w>
dom esday</w>
do tted</w>
do gmas</w>
do glycan</w>
pepti doglycan</w>
distri bution
dispropor tionatel
dis tiller
dis son
dis organ
dis obe
dis fran
dis engag
dis credit
dis courses</w>
dis counted</w>
dis av
dis approval</w>
dis agrees</w>
dioc letian</w>
din ian</w>
sar dinian</w>
dign itaries</w>
dictat orships</w>
dic raft</w>
han dicraft</w>
dic hotom
di xon</w>
di va</w>
di stanced</w>
di ps</w>
di pp
di em</w>
di bly</w>
di az</w>
di atom
der ies</w>
der bil
van derbil
del icac
dehy drati
dec omposition</w>
dec ommis
dec ode</w>
dec isis</w>
de ts</w>
de pre
de flat
de duction</w>
de arbor
davi dson</w>
das hbo
dam ascen
d wt</w>
d son
gran dson
d ner</w>
d ger</w>
d childre
gran dchildre
d bas
d ais
cy tos
cun ningha
cum ulative</w>
cul init
mas culinit
cu cum
cron yis
cro ws</w>
cro tal
cre mon
cre dential
cra ftin
cra fted</w>
coyo acán</w>
countr ywi
council lor</w>
cou rtes
cou ntes
cou gar</w>
cou gar
cor robor
contem poraneou
constru ctive</w>
conqu eror
confl icted</w>
confi dential</w>
con stric
con se
con scripts</w>
con nic
comprehen sives</w>
commer cializ
comman deries</w>
com pton</w>
com iti
col ourfu
col onisati
col onia</w>
col lag
col erid
coc oon</w>
co vertly</w>
cloc kwis
cle aner</w>
cl yde</w>
cl ut
cl osenes
cl ergy
cl aws</w>
cl arma
cl arify</w>
cit ywi
cin nab
chri stendo
chim panze
charle stow
charac teristically</w>
ch âtea
ch wor
ch os</w>
ch orus</w>
ch octa
ch le
ch inson</w>
hut chinson</w>
ch ildbir
ch ies</w>
du chies</w>
ch ic</w>
ch erri
ch eney</w>
ch dow
tou chdow
ch ang'an</w>
ch ag
cer ebellum</w>
cer eal</w>
cat erpil
cat echis
car ras
car nivore
car les</w>
car illon</w>
car do</w>
car diolog
cap illar
cap eti
can oniz
can dol
can dle</w>
cad illa
ca simi
ca dets</w>
c. s.c.</w>
c ue</w>
c sp</w>
c rad
c kis
c ken</w>
c g</w>
c fl
c eu
c do
c ci</w>
c ca
bur ial
budd hahoo
bu tler</w>
bu ko
bu ilds</w>
bu ce
bsk yb</w>
bro wsin
bro oke</w>
bri dge
bre wster</w>
bou nty</w>
boo kst
bon dag
bo ghdad
bl urred</w>
bl oodsh
bl ocker
bit ternes
bil ba
bi kan
ber lioz</w>
be ys</w>
be quea
be iyan
be aver
bar yon
bar uch</w>
bar thol
bar nst
bar ium</w>
bar bican</w>
ban kno
ban gko
bal kh</w>
bak ufu</w>
b p</w>
b hi
auto vía</w>
au tocrati
au stra
au reli
au reat
cal aureat
bac calaureat
au pul
falek aupul
au ca
transc auca
attri butin
ati zed</w>
ati ya</w>
ati le</w>
vol atile</w>
ather oscl
at tvas</w>
bodhis attvas</w>
at osla
svi atosla
at ories</w>
sign atories</w>
at op
at onin</w>
mel atonin</w>
at olog
esch atolog
at ernar
qu aternar
ast rophysic
ast ra</w>
as tity</w>
ch astity</w>
as sign
as se</w>
as pin
gr aspin
as mic</w>
pl asmic</w>
as mar
as aur
argen toratum</w>
arch ivin
arch duke</w>
ar tet</w>
qu artet</w>
ar nt</w>
le arnt</w>
ar kan
sam arkan
ar inen</w>
sa arinen</w>
ar ied</w>
sal aried</w>
ar do
ar den
ar ck</w>
ar bha</w>
ar ahan
appr entices
ap proves</w>
ap ped</w>
ap hit
gr aphit
anti quities</w>
anti ky
anthoc yanin
annou ncements</w>
anal ysed</w>
an xiou
an war</w>
an uel</w>
em anuel</w>
an tnes
unpleas antnes
an si</w>
an sgender</w>
tr ansgender</w>
an sfu
tr ansfu
an ser
an os</w>
an nul
an ic
an hu
an gxu</w>
gu angxu</w>
an gli
an gled</w>
an gdon
an ey</w>
ch aney</w>
an dpo
st andpo
an ax
am sh
am per
am pag
ch ampag
am itab
am ien
am enities</w>
am ateur
alex andro
al ys
al up
al um</w>
al tu
asph altu
al to</w>
al tar
al og
al ition
co alition
al ings</w>
de alings</w>
al ign</w>
al do</w>
al coc
al armed</w>
al am
al ain</w>
ai ji</w>
ku aiji</w>
ah madiyya</w>
ag us</w>
ag ra
ag oras</w>
ag ne
ag ged</w>
ag erial</w>
man agerial</w>
ag ellat
fl agellat
ag arbha</w>
ad th</w>
bre adth</w>
ad ob
ad master</w>
he admaster</w>
ad ler</w>
ad emarked</w>
tr ademarked</w>
ad eloupe</w>
gu adeloupe</w>
ad der</w>
ad alup
gu adalup
acknowle dgin
acknowle dgem
ac ultur
aqu acultur
ac tisin
pr actisin
ac tise</w>
pr actise</w>
ac os</w>
pi acos</w>
olym piacos</w>
ac lava</w>
bal aclava</w>
ac ion
ac hil
ac hes
ac hen</w>
ac es
sp aces
ac ental
pl acental
ab ruptly</w>
ab ooks</w>
ultr abooks</w>
ab olishin
ab normal</w>
ab erde
ab beys</w>
ab ba</w>
a. k.
a wn</w>
a hi</w>
a hedral</w>
tr ahedral</w>
te trahedral</w>
a et
9 70</w>
9 7.
9 30</w>
9 15</w>
9 13</w>
8 86</w>
8 85</w>
8 74</w>
8 70</w>
8 63</w>
8 5.
8 2.
8 14</w>
8 13</w>
8 08</w>
7 87</w>
7 70</w>
7 63</w>
7 6.
7 6
7 47</w>
7 11</w>
7 10</w>
7 1.
7 09</w>
6 91</w>
6 84</w>
6 76</w>
6 43</w>
6 30</w>
6 24</w>
5 8
5 7′
5 31</w>
5 28</w>
5 27</w>
5 23</w>
5 12</w>
5 11</w>
5 09</w>
5 05</w>
5 0.
4 72</w>
4 70</w>
4 62</w>
4 51</w>
4 44</w>
4 4
4 11</w>
3 s</w>
3 o</w>
3 :00</w>
3 94</w>
3 78</w>
3 73</w>
3 63</w>
3 61</w>
3 3rd</w>
3 04</w>
20 19</w>
20 .4</w>
2 o3</w>
2 99</w>
2 87</w>
2 81</w>
2 72</w>
2 13</w>
19 .8</w>
18 7th</w>
17 60s</w>
17 47</w>
17 33</w>
17 24</w>
17 17</w>
17 11</w>
17 03</w>
17 .1</w>
16 73</w>
16 65</w>
16 59</w>
16 47</w>
16 39</w>
16 19</w>
16 07</w>
16 03</w>
16 .7</w>
15 93</w>
15 78</w>
15 72</w>
15 29</w>
15 26</w>
15 24</w>
15 .8</w>
15 .6</w>
14 98</w>
14 79</w>
13 .7</w>
10 nes</w>
10 6.
10 0.
1 s</w>
1 a
1 150</w>
0. 00
0 50</w>
0 01</w>
. uk</w>
. d.</w>
' o</w>
& o</w>
⟨ k
− 9</w>
ἀπ έλλ
ἀ ρ
ِ ي
р о
к о
а н
τ ης</w>
τ αν
π ο
λ ε
η ν
γ υ
ή ς</w>
ɪ z
ž ić</w>
ś ī
ō yō</w>
ī r
ē s</w>
ö t
ó s</w>
ñ os</w>
é tudes</w>
é mo
é al</w>
æ o</w>
zi ńsk
ze alou
z sch
z or</w>
z on</w>
z om
z navi
z man</w>
z man
z ja</w>
z immer
z if</w>
z ie
z ei
z ania</w>
z an</w>
z .</w>
you ng
yle igh</w>
yan gzho
y war
y usu
y rin
y os</w>
y om
y ok
y na</w>
y mo
y id</w>
y fac
y dn</w>
y der</w>
y cli
y ch
y at
y arch
y am</w>
xi 'an</w>
x xi</w>
x un
x tr
x och
x h
x enon</w>
x eer</w>
x able</w>
wor ds
wit tenber
wi gn
wi eldin
wh ee
wel yn</w>
we bster</w>
war wic
wan li</w>
w ī
w ys</w>
w wi
w to</w>
w t
w sk
w rin
w ra
w r
w od
w m</w>
w l
w ky</w>
w ic</w>
w fi
w bur
w bac
w appin
vol ksw
vin ho</w>
vi stul
ver sed</w>
ver mil
ver digr
ven cy</w>
vau devil
var na</w>
van ished</w>
val uin
v ě
v í
v uit
v sk</w>
v mwar
v le
us hin
ur onal</w>
ur ic</w>
ur ge</w>
ur alic</w>
uph oldin
up take</w>
up iat</w>
up .co
univer salis
under represen
under estimat
under cover</w>
un true</w>
un tre
un ted</w>
un sustain
un su
un saf
un realis
un published</w>
un organ
un oppos
un ned</w>
un marked</w>
un itarian
un impor
un ger</w>
un familiar</w>
un devel
un checked</w>
un challen
un bor
un alter
un ai
un aff
um ba</w>
ul tati
ul ares</w>
u. n.</w>
u xes</w>
u tu
u tist</w>
u illy</w>
u id
u hf</w>
u gged</w>
u ganda</w>
u ga</w>
u f</w>
u en</w>
u bai
u ap</w>
u ae</w>
tö pff
tw ith
tw eets</w>
tw ay</w>
tur nus</w>
tur ia</w>
tu tionalis
tu mon</w>
tter dam</w>
tro pic</w>
tri omph
tri bes
tr ench
tr apl
tr ajan</w>
tr ade
tr actin
tr ache
ton igh
tin ian</w>
tin foil</w>
tigr inya</w>
tibe tolog
ti ère</w>
ti ão</w>
ti zin
ti tes</w>
ti ply</w>
ti mur
ti mo</w>
ti metre
ti llo</w>
ti fad
ti dimen
ti anis
therav āda</w>
th ru
th odol
th le
th ias</w>
th ence</w>
tex coc
ter re</w>
ter odo
ter nar
ter mit
ter inar
ve terinar
ten ses</w>
tel ewi
te trapl
te atro</w>
tar sk
tan zania</w>
tan gsh
tac hy
ta xable</w>
ta ker</w>
ta iner
t ā
t és</w>
t é</w>
t ène</w>
t son</w>
t so</w>
t sider
t nt</w>
t mon</w>
t li
t go
t fli
t fal
t cry</w>
t club</w>
t cli
t 2</w>
symbi onts</w>
sw appin
susp iciou
sur mount</w>
super marke
super heroes</w>
su tcli
su bun
stru ctive</w>
stru cted</w>
stingu ishable</w>
sti ll
sti les</w>
sti ka</w>
st ylin
st ut
st rit
st rab
st oke</w>
st ocen
st ob
st lin
st eries</w>
st el</w>
st church</w>
st avi
st au
st arch
st anis
spl endi
sp rit
sp ection</w>
sp awn</w>
sou ba</w>
son gbir
sol ed
sol ange</w>
so bri
sn yder</w>
slo vě
sk yla
sin ia</w>
signi fies</w>
sign alled</w>
si vit
si pati
si olog
si gis
si by
si ally</w>
ver sially</w>
si ae</w>
sha wls</w>
sh unned</w>
sh outin
sh ot
sh olds</w>
thre sholds</w>
sh ocks</w>
sh ocked</w>
sh inin
sh erid
sh arks</w>
ser vo</w>
ser enad
sen sch
wis sensch
sen ior
sec retin
sebas tião</w>
se wer</w>
se th</w>
se pti
se pol
se away</w>
se awat
se agra
sch lus
sch iz
san há</w>
san dro</w>
san dar</w>
san ctifi
sam uel
sam son</w>
sam os</w>
sam hit
sal ivar
sal init
saf egu
s ɛ
s ö
s ée</w>
s way</w>
s roots</w>
s ri
s ocrati
s nat
s nar
s mat
s lam
s fyin
sati sfyin
s forms</w>
s figur
s b
s adi
ru mi</w>
ro villi</w>
ro uge</w>
ro tterdam</w>
ro sh
ro sen</w>
ro sel
ro san
ro ls</w>
ro lo
ro gu
ro gati
ro coc
ro cli
ro ckin
ro bbi
ro bbed</w>
ro as
richar dson</w>
ric ular</w>
ric ht</w>
ric hly</w>
ri mon
ri bbed</w>
rest arted</w>
ren dition</w>
rema stered</w>
reic hs
recor dable</w>
reac tivat
re wal
re uter
re us</w>
re tt
re tracted</w>
re too
re su</w>
ro resu</w>
re stat
re orien
re mixed</w>
re men
re lo
re ka</w>
re hea
re fri
re fle
re el
re consider</w>
re ceded</w>
re bounded</w>
re bec
ras smen
ras kin</w>
ran so
ram ific
ram ids</w>
rac etr
ra yleigh</w>
ra wsk
r yn
r tro
r ti
r selves</w>
r s
r rin
sti rrin
r hô
r des</w>
r 1a
qu otin
qu im
qu hou
qu et
qu arre
qu anta</w>
q īng</w>
q ed</w>
q al
q .</w>
pā śup
py ramids</w>
pu yi</w>
pu roresu</w>
pu pp
pu bes
psy chos
pse udo
propri etor
pronou ncements</w>
profes sionalis
pro verbs</w>
pro ver
pro tist
pro sel
pro le
pro digi
pro clai
pro bes</w>
pre vai
pre sch
pre pon
pre figur
pre ced
pre cau
pre ached</w>
pra kri
pp cg</w>
por tman
pop ulares</w>
pol ysaccharides</w>
pol yn
pol sk
pol loc
pol ishin
pol icem
pol anco</w>
po tism</w>
po stag
po iti
po incar
po dium</w>
plei stocen
pl under</w>
pl under
pl ugged</w>
pl enar
pl atonis
pin eap
pic abia</w>
photo recep
photo grapher
ph rat
ph ophon
ph enat
per sh
per ados</w>
pen tat
pay roll</w>
pat rols</w>
pat chwor
pas san
pas sable</w>
pas eo</w>
par tridge</w>
par rett</w>
par ities</w>
par isian
par ed
par don
par do
par chmen
par ameter</w>
pan thalas
pan tag
pan ophon
pal lium</w>
pac elli</w>
pa quim
p ä
p w</w>
p tile</w>
re ptile</w>
p tati
tem ptati
p m
p ga</w>
ow ls</w>
over view</w>
ou tsider
ou tgo
ou tcry</w>
ou sa</w>
ou reds</w>
ou ch
ou achit
oth elium</w>
os so
os se
os sal</w>
os mi
os mania</w>
os ks</w>
os kop</w>
or yx</w>
or wel
or tive</w>
or tfal
sh ortfal
or table</w>
or say</w>
or relati
or ned</w>
or mo
or min
or igen</w>
or idi
or ibe</w>
or di
or bel
op pressed</w>
op oliz
op ec</w>
op aqu
oo tou
sh ootou
on to
on ix</w>
on it
on ishin
on ings</w>
on go</w>
on de</w>
on bo
on .:
om aha</w>
ol yploid</w>
ol me
ol ith
ol inian
ol factor
ol dha
ol de</w>
ois elles</w>
ogr aphically</w>
ogr apher
og ast
off ended</w>
ody mium</w>
oc kha
oc eros</w>
rhin oceros</w>
ob struction</w>
ob structed</w>
o tu
o tou
o stric
o stal
pentec ostal
o in
o gs</w>
o el
o dc</w>
o bel
o ban
o au</w>
o ag
o activit
num eral</w>
nu qa</w>
qay nuqa</w>
nu anced</w>
nor therner
non verbal</w>
no vi</w>
no twith
no tify</w>
ni zin
ni zar
ni hil
ni ghtly</w>
ni ghtin
ni et
ni br
neuro anatom
nec tar</w>
ne wlin
ne wbur
ne uronal</w>
ne uilly</w>
ne tically</w>
ne tfli
ne potism</w>
ne onat
ne odymium</w>
ne gro
ne bur
ne ander
nab éu</w>
n ô
n é</w>
n án
n tou
n speopl
tow nspeopl
n ships</w>
n s
n ri</w>
n p</w>
n ologi
n k
n ha
n h</w>
n ge</w>
n de
n co</w>
n around</w>
tur naround</w>
my steries</w>
mus ically</w>
mul tiply</w>
mul tidimen
mu khtar</w>
mu dd
mu cus</w>
mp 3s</w>
mor si</w>
mor phophon
mon opoliz
mon key</w>
mom eter</w>
mol yb
moder ns</w>
mo tu</w>
mo tive</w>
mo resby</w>
mo chem
ther mochem
mis rul
mis erable</w>
min kowsk
mil lionai
mil lime
mic rovilli</w>
mic rocli
mi yam
mi var
mi stress</w>
mi ocen
mi di</w>
mesopot amian</w>
mes othelium</w>
mer ton</w>
mer smit
mer cad
men dic
mem orable</w>
mel eag
me war</w>
me tière</w>
me thodol
me tac
me gas
me gab
me diator</w>
mc mahon</w>
mat te</w>
mat olog
mas sles
mar vel
mar sy
mar ne</w>
mar ks
mar ion</w>
map hro
man te
man jus
man ipu
man icha
man dre
man chuk
man ae</w>
mal yarch
mal wa</w>
mahar aja</w>
mag netically</w>
mac ht</w>
wehr macht</w>
ma ła</w>
zy mała</w>
ma thew</w>
ma kar
ma hbu
ma ast
m ú
m vp</w>
m tb</w>
m sk
m mon</w>
m maker
m be</w>
ly welyn</w>
ly fis
ly ceu
lu ck
low een</w>
lou rdes</w>
lou nge</w>
longes pée</w>
loc alis
loc ales</w>
lo thar</w>
lo gg</w>
lo bin</w>
og lobin</w>
lo bby
lit urgi
lis souba</w>
liqu idat
liqu efi
li vy</w>
li fec
li eu</w>
li ed
li bil
li ar</w>
li abilities</w>
le tin
le ppar
le igh
le icest
le arns</w>
lat erally</w>
lar son</w>
lan terns</w>
lan dles
lan dhol
lan der</w>
lam arck</w>
lab yrin
la ymen</w>
la ugh</w>
la ksh
la ke
la id
l ó</w>
l é</w>
l z</w>
l z
l v
l sch
l ph
l pap
wal lpap
l mu
l mer</w>
l lywelyn</w>
l ly</w>
l li</w>
re lli</w>
l hy</w>
l hou
l ho
l g</w>
l brook</w>
mil lbrook</w>
kru gman</w>
ko zan
kin nock</w>
kil brac
ki osks</w>
ken yan</w>
kel logg</w>
ke eper
kar das
kam pf
k ō
k woo
k tor</w>
k t</w>
k t
k stati
wor kstati
k stag
k sha
k seller
k ron
k rat
k r</w>
k lä
k les</w>
k lan</w>
k ke
k ka</w>
k j</w>
k ies</w>
k hea
k ex
k aw
k at</w>
k alis
k ail
jus tici
jud æo</w>
jo siah</w>
jo inted</w>
jian gnin
jes ús</w>
jen dra</w>
jel lyfis
jec tivel
ob jectivel
je kavi
jan eir
j vo
vo jvo
j orge</w>
j oc
j hā
j f
it tle</w>
it pu
lal itpu
it es
wh ites
it erat
it ch</w>
is otro
is ien</w>
par isien</w>
is han</w>
ir respective</w>
ir replaceable</w>
ir itually</w>
sp iritually</w>
ir az</w>
sh iraz</w>
intro spection</w>
intr actable</w>
inter war</w>
inter personal</w>
inter montan
inter metal
inter governmental</w>
inten sities</w>
insti tutionalis
insp ector</w>
insec tivor
inin gen</w>
indu cin
individu aliz
indi stinguishable</w>
indi amen</w>
incre mental</w>
in war
in trav
in timac
in tifad
in sic
intr insic
in jun
in ician
in gon</w>
sh ingon</w>
in go</w>
in ges
in gen
in gan</w>
in frequently</w>
in fre
in forms</w>
in fir
in fi
in edi
in discri
in dis
in determin
in defen
in decisive</w>
in cts</w>
inst incts</w>
in breedin
in ber
in ac</w>
step inac</w>
im pu
im probable</w>
im position</w>
im ph
im penetr
im ilco</w>
xoch imilco</w>
il ms</w>
il lo
il io</w>
il ial</w>
il ei</w>
ien fel
lil ienfel
ie yas
ide ologically</w>
ic urus</w>
ic ler</w>
ic ker
ic ht</w>
ic ht
ic hi
ic atur
i vas
i val</w>
i pat
i kaz
kam ikaz
i jekavi
i is</w>
i gy</w>
i fol
man ifol
i do</w>
i dic
i bur
i bel
hydro foil</w>
hydro carbon</w>
hy phenat
hun yad
hun nic</w>
hun dla</w>
hum oral</w>
hu manae</w>
ht émo
hon ourable</w>
hom omorph
hom eost
hol stein</w>
his panophon
hin dbra
hil lem
hi ppar
hi mi
hi kin
her tz</w>
her rer
her od</w>
her maphro
hen derson</w>
hel wys</w>
hei ress</w>
he terodo
he althier</w>
he addre
har yan
har moniou
har iah</w>
har dlin
har den</w>
har assed</w>
han dler</w>
ham pstea
ham mersmit
hal loween</w>
ha yy</w>
ha ydn</w>
ha vre</w>
ha vo
ha iti
h àn</w>
h to
h ne
h k</w>
h eville</w>
gu ys</w>
gu stavi
gu rehea
gu ilfor
gu erra</w>
gro undin
gro tto</w>
gro oved</w>
gri zz
gre gor</w>
gra zed</w>
gr zymała</w>
goo dnes
gol dman</w>
go te</w>
zy gote</w>
go et
go dfa
gic ides</w>
gi ffor
gha znavi
gh tclub</w>
ni ghtclub</w>
ger ät</w>
gen ces</w>
ge ophy
ge of
ge ode
gar vey</w>
gar ner</w>
gam et
gam espy</w>
gal lus</w>
gal lag
gal ilei</w>
gal ician
gal ax
g zi</w>
g yp
g wir
mc gwir
g ved
ri gved
g ts
son gts
g se</w>
g qu
g por
g ough</w>
g ms</w>
g man
g low
g lat
g gy</w>
g ge</w>
g ga
g fi
g da
frat erni
for sy
for go
for fe
for cef
fle dged</w>
fla vor</w>
fl ut
fl ushin
fl uid
fl oridi
fl agged</w>
fil mmaker
fil ls</w>
fic titiou
fi rewal
fi gurehea
fi go</w>
fi gar
fi ef</w>
ff les</w>
fer tilis
fe uds</w>
fau conni
fal con</w>
fac ultati
f way</w>
hal fway</w>
f ton</w>
f tly</w>
f rö
f ré
f klä
f in</w>
f im
f en</w>
f ds</w>
f di
f ad</w>
f 1</w>
ex tractin
ex onym</w>
ex erts</w>
ex eg
ex cis
evi dently</w>
eu rovis
eu reka</w>
eu phrat
eto 'o</w>
eth ylen
es pl
es ophag
es kim
er vil
er ved</w>
er tific
er rer
gu errer
er qu
qu erqu
er num</w>
er nak</w>
past ernak</w>
er ma
er lewin
er iel</w>
mat eriel</w>
er fal
wat erfal
er eupon</w>
wh ereupon</w>
er et
er equ
pr erequ
er ds</w>
er cus</w>
qu ercus</w>
er cin
er cat
sab ercat
er an</w>
er ag
eph alou
ep pin
ep icurus</w>
enter tainer
enter io</w>
enhan cements</w>
englis hmen</w>
en zo</w>
lor enzo</w>
en play</w>
scre enplay</w>
en ou
en nes</w>
en gen</w>
sch engen</w>
en gen
en dicot
en de</w>
en cap
en au
embar rassmen
em ilio</w>
em ail
em ad
electro lysis</w>
el oqu
el lum</w>
el lsch
ges ellsch
el ler</w>
el icit</w>
el ian
el ch
el be</w>
el aw</w>
el ai
eg acion
eff igi
eff ected</w>
edu ardo</w>
ec ologi
ec hu
ec hen</w>
ec han
ear nes
e we
e tou
e por
e par
e oti
e ography</w>
og eography</w>
e ki</w>
e ju</w>
e hanna</w>
susqu ehanna</w>
e guards</w>
saf eguards</w>
e ea</w>
e bre
du bro
dro wned</w>
drac hma</w>
dra wbac
dou ro</w>
don nel
dom ingo</w>
dom enic
do ves</w>
do van</w>
mol dovan</w>
dis yl
dis sipati
dis repai
dis proved</w>
dis posses
dis jun
dis establis
dis continuou
dis charges</w>
dis armed</w>
din ist
san dinist
din alat
digi tize</w>
di vus</w>
di van</w>
di strus
di re</w>
di oactivit
ra dioactivit
di me</w>
di gni
di ak</w>
ko diak</w>
di ab
deuter ostom
des perados</w>
des erved</w>
des ertific
der ek</w>
der eg
den ses
dem oskop</w>
dem oiselles</w>
del os</w>
del imitati
del egacion
defa ulted</w>
dec ius</w>
de van
de tours</w>
de stef
de ox
de ia</w>
pai deia</w>
de gger</w>
hei degger</w>
de gar
de fy</w>
de fer</w>
de bar
de af
dar wis
dar tmo
dan elaw</w>
dan cer</w>
da wkin
da ois
d zun
d zon
d wy
gol dwy
d play</w>
d parents</w>
gran dparents</w>
d mil
d mad
han dmad
d luck</w>
goo dluck</w>
d gra
d fa</w>
d bo
d bac
d ain</w>
cu ticle</w>
cu ck
cu bes</w>
cro wnin
cri minaliz
cre mati
cre dibil
cr üe</w>
cou rtro
cou ntou
cou nt
cor vée</w>
cor p.</w>
cor dil
contro versially</w>
contr action
consu lshi
confu cius</w>
concei vable</w>
con ifer</w>
con gru
con genital</w>
con formal</w>
con don
con course</w>
con cis
commen cem
comman dmen
com infor
com be</w>
col umba</w>
col quhou
col oureds</w>
col ombi
col egi
co oles
co efficien
co dd</w>
co das
co br
co atings</w>
co arse</w>
cl inician
cl eric</w>
cl av
cl addin
ci ut
ci olingu
so ciolingu
ci metière</w>
ci mas</w>
ci der</w>
chron icler</w>
chris tianiz
chris tianis
chri stchurch</w>
chaluk yas</w>
ch uck</w>
ch ozo
tro chozo
ho trochozo
lop hotrochozo
ch isem
ch ings</w>
ch erni
ch equ
ch eon</w>
ch ef
ch eat
ch ay
ch ath
ch ario
ch anak
ch aff
cen timetre
cen ds</w>
des cends</w>
cen den
des cenden
cem enterio</w>
cem ented</w>
ce yl
ce tt</w>
ly cett</w>
cas sav
car vin
car tne
mc cartne
car olinian
car ol</w>
car lton</w>
car icatur
car dinalat
cap uch
can tab
can oes</w>
can oe</w>
can nes</w>
can nab
cal var
cal lag
cad mium</w>
ca van
ca esi
c ār
c á
c ud
c tos
fru ctos
c ta
c ppcg</w>
c or</w>
c cul
su ccul
c acci
bureau crat
bu zz
bu yer</w>
bu tte</w>
bu ddin
bru talis
bro wns</w>
bro wnin
bro ker
bro ca</w>
bric ktow
bre aches</w>
bra hmi</w>
bou dhan
bos niak</w>
boo kseller
boo kke
bo yz</w>
bo il</w>
bo athou
blin dnes
bl undy</w>
bl umen
bl osso
biof ilms</w>
bil dun
bi onts</w>
ym bionts</w>
bi den</w>
ber nabéu</w>
bel li</w>
be zir
gs bezir
regierun gsbezir
be thle
be da
bay ou</w>
barbar ossa</w>
bar gain
bap tisms</w>
ban co</w>
bac kstag
bab yfac
bab angi
b ó
b ä
b titles</w>
su btitles</w>
b terran
su bterran
b jp</w>
b ion</w>
b ies</w>
b hut
b hil
b genre</w>
su bgenre</w>
b ds</w>
b ab</w>
b .c.</w>
az zo</w>
pal azzo</w>
ay ut
avi alan</w>
aver roes</w>
av ez
bel avez
autoc orrelati
autoc ephalou
authorit arian
authen ticit
au tor
au htémo
cu auhtémo
au gsbur
au ga</w>
au fklä
ati ze</w>
ati zati
at to
at tila</w>
at ry</w>
at rava</w>
cal atrava</w>
at oria</w>
at opic</w>
at erian</w>
bil aterian</w>
at able</w>
ast onishin
ast feedin
bre astfeedin
assa ulted</w>
as tics</w>
as ticit
pl asticit
as sroots</w>
gr assroots</w>
as sr</w>
as smat
cl assmat
as pu
bil aspu
as per
as hi
as heville</w>
as har
as em
arch ibal
arav alli</w>
ar tsa
ar qu
ar on</w>
sh aron</w>
ar ni
ar ner
le arner
ar le</w>
ar ckis
lam arckis
ar be
ar at
ar as</w>
appr entice</w>
appe asem
ap plau
ap otro
ap oth
ap hro
ap ella
anto inet
angl ophon
an ybody</w>
an yan
an uts</w>
pe anuts</w>
an time</w>
me antime</w>
an thra
an sforms</w>
tr ansforms</w>
an sfigur
tr ansfigur
an sed</w>
cle ansed</w>
an nic</w>
an kar
an in</w>
an hal
an ha
an gzho
an gsh
an fi
an esi
mel anesi
an drag
an dor
an dam
an ast
an ar</w>
an ap
an ah</w>
an ad
am gir
dre amgir
am be
am ad
alem annic</w>
alek sandar</w>
al yzed</w>
al yst</w>
cat alyst</w>
al yp
al ymp
par alymp
al thfu
he althfu
al ten
al ted</w>
al mo
al man
al mag
al lyin
al lmu
al la</w>
al kan</w>
al gh
al fre
al fi
co alfi
al ep
al ehouses</w>
al der</w>
al ded</w>
her alded</w>
al bre
al bion</w>
al ae</w>
ak bar</w>
air stri
air lift</w>
ai des</w>
ag inar
im aginar
ag edi
tr agedi
af ram
af ra</w>
adver tise</w>
adven turous</w>
ad žić</w>
kar adžić</w>
ad wat
he adwat
ad orned</w>
ad mon
ad mi
ad m.</w>
ad enau
ad ay</w>
far aday</w>
acad émi
ac si</w>
ac ra
ac itat
incap acitat
ac iously</w>
ac id
ac ic</w>
thor acic</w>
ac ia</w>
ac ho
ac cul
ac ceded</w>
absol utist</w>
ab usive</w>
ab sur
ab rupt</w>
ab ortive</w>
ab ode</w>
ab normal
ab illy</w>
rock abilly</w>
ab da</w>
ab bed</w>
gr abbed</w>
ab bas</w>
a š
a we</w>
a ver</w>
a ved</w>
le aved</w>
a jim
a har
a han</w>
a eu
a avi
a au
a anit
can aanit
a achen</w>
9 90</w>
9 76</w>
9 73</w>
9 72</w>
9 68</w>
9 60</w>
9 5.
9 4
9 29</w>
9 11</w>
9 06</w>
8 u</w>
8 64</w>
8 58</w>
8 55</w>
8 42</w>
8 35</w>
8 12</w>
8 10</w>
8 05</w>
7 90</w>
7 85</w>
7 80</w>
7 78</w>
7 76</w>
7 49</w>
7 34</w>
7 27</w>
7 23</w>
7 21</w>
7 12</w>
7 07</w>
7 000</w>
7 00
6 a</w>
6 92</w>
6 8.
6 6.
6 44</w>
6 15</w>
6 09</w>
5 99</w>
5 94</w>
5 8th</w>
5 78</w>
5 77</w>
5 76</w>
5 55</w>
5 38</w>
5 33</w>
5 32</w>
5 26</w>
5 06</w>
5 04</w>
4 99</w>
4 97</w>
4 91</w>
4 83</w>
4 81</w>
4 77</w>
4 69</w>
4 67</w>
4 57</w>
4 49</w>
4 38</w>
4 31</w>
4 28</w>
4 15</w>
4 09</w>
4 04</w>
4 03</w>
3 91</w>
3 85</w>
3 59</w>
3 56</w>
3 52</w>
3 500</w>
3 4th</w>
3 44</w>
3 41</w>
3 39</w>
3 37</w>
3 24</w>
3 22</w>
3 18</w>
3 17</w>
3 16</w>
3 12</w>
3 06</w>
3 02</w>
23 8u</w>
2 b</w>
2 85</w>
2 82</w>
2 800</w>
2 6th</w>
2 61</w>
2 58</w>
2 51</w>
2 42</w>
2 28</w>
2 20
2 11</w>
18 1st</w>
17 45</w>
17 37</w>
17 36</w>
17 21</w>
17 16</w>
17 12</w>
17 08</w>
17 .6</w>
17 .3</w>
16 99</w>
16 95</w>
16 90</w>
16 87</w>
16 64</w>
16 55</w>
16 52</w>
16 51</w>
16 36</w>
16 21</w>
15 98</w>
15 96</w>
15 89</w>
15 88</w>
15 87</w>
15 85</w>
15 58</w>
15 46</w>
15 43</w>
15 39</w>
15 19</w>
15 02</w>
14 85</w>
14 83</w>
14 39</w>
14 .8</w>
14 .5</w>
14 .4</w>
13 89</w>
13 78</w>
13 46</w>
13 .9</w>
13 .3</w>
12 90</w>
12 45</w>
12 .9</w>
10 54</w>
10 31</w>
10 .4</w>
10 .1</w>
1 up.co
1 b
0 70</w>
0 56</w>
0 40</w>
0 18</w>
.co .uk</w>
.. ..
. 9
' il</w>
' ath
ba 'ath
漢 字</w>
− 3</w>
− 3.
− 12</w>
′ p</w>
‎ ‎</w>
ἀ κ
ي ة</w>
ع ب
ر ا
ة ‎</w>
у ́
с ск
н а
л о
л и
к а</w>
и й</w>
ύ κ
τ ταν
σ κλ
σ ις</w>
ρε τταν
π ικ
ο τ
ν ος</w>
μ ατ
λ ύκ
λ ο
κ αν
γέ της</w>
α κ
ί ας</w>
ά ρ
ά λ
̍ k</w>
ː n</w>
ˌ ɛ
ˌ æ
ˈ ʃ
ˈ n
ˈ l
ˈ dʒ
ɜ ːr
ə ˌ
ş ı
ō ng</w>
ō n</w>
ł ad
ı k</w>
ī yah</w>
č a</w>
ā ṇ
ā ya</w>
ā gat
ā dhi</w>
ü k</w>
õ es</w>
ñ ñ
ñ as</w>
í no</w>
é po
é odor
è ge</w>
ç al</w>
ç ais</w>
ä siden
ä gi</w>
â lon
á zquez</w>
á o</w>
á k</w>
µ m</w>
z ì</w>
z äh
z àng</w>
z william</w>
z ial
z hy
z hou
z hei
z h</w>
z ev
z est
z ek</w>
z ec
z da</w>
z b
z aw
yon gyin
yin gxi
ye ovi
y zes</w>
y th
y t
y se</w>
y se
y san
y ri</w>
y re
y over</w>
y om</w>
y note</w>
y nes
y mit
y min
y me</w>
y ma</w>
y fus</w>
y ev
y em
y ea
y ces</w>
y by</w>
y bu
y bi
y be
y ay
y aqu
x or</w>
x ophon
x oc
x ies</w>
x ie</w>
x ac
wor thines
woo dwor
woo dside</w>
wit ty</w>
win fre
win dmil
wil lis</w>
wi po</w>
wi ped</w>
wi fi</w>
wi den</w>
wh ig
west vil
west erni
wei zman
we evi
was hten
war like</w>
war he
war dro
wal vis</w>
wal kable</w>
w ür
w ö
w so
w oy
w ny</w>
w md</w>
w ma</w>
w le
w la</w>
w c
w b
w az
w am
w ail
vā ṇa</w>
voc alist
vit ro</w>
vis count</w>
vin sk
vin ey
vic timi
vic iou
vic ente</w>
vi val
vi passan
vi ktor</w>
vi kram
vi gor</w>
ver non</w>
ver iz
ver bati
ven erable</w>
vel ázquez</w>
val ènci
v õ
v é
v va
v ultur
v og
v n</w>
v atur
v .
ut opian</w>
us ka</w>
us enet</w>
us ative</w>
ur ry</w>
ur iou
ur icio</w>
ur gency</w>
un translat
un tap
un suppor
un sol
un se
un ru
un rele
un read
un protec
un productive</w>
un popularit
un na</w>
un li
un justifi
un founded</w>
un enfor
un ds
un detec
un desired</w>
un defe
un cou
un contac
un answer
umbre llas</w>
um ri</w>
ul ys
ul cer</w>
ud din</w>
u x
u trients</w>
u qu
u mar
u ji</w>
u gly</w>
u fi
u es
u erbac
u ees</w>
u cy
u ct</w>
u con
u coc
u ca</w>
u bil
ty mpan
tur iat
tur ban</w>
tun dra</w>
tun da</w>
tu cker</w>
tu ben
ts bridge</w>
tro pe</w>
tro jan
tri tiou
tri ploid</w>
tri glycer
tre acher
traff icker
traff icked</w>
tr orai
tr ically</w>
tr icab
tr ampl
tr acel
tow nships</w>
tou ré</w>
tor io</w>
vit torio</w>
top shop</w>
top onyms</w>
top ographic
tol lway</w>
to yot
to krat
to bag
to ba</w>
tlan dt</w>
tin eer
ti ːz</w>
ti ér
ti tlin
ti tlem
ti shea
ti ses</w>
ti ran</w>
ti pit
ti mer</w>
ti ll
ti cks</w>
ti ch
ti bul
ves tibul
ti aries</w>
ti able</w>
ti aan</w>
ther ings</w>
ther ian</w>
th āgat
th ysan
th yro
th ymin
th ylen
th wor
th ucy
th uan
th ru</w>
th par
th os</w>
th mor
th eus</w>
th eo</w>
th el</w>
th ein</w>
th ee</w>
th ai
ter tul
ter root</w>
ter ozo
ten tac
ten sor</w>
ten sile</w>
ten ophor
ten gen</w>
te pian
te kle
te hu
te ez</w>
tar if
tan ker
tal ib</w>
ta xed</w>
ta thāgat
ta izho
ta inable</w>
t ʃ
t zes</w>
wal tzes</w>
t thar
t step
t sou
t note</w>
t ni
t nam</w>
t na</w>
t mi
t lan</w>
ti tlan</w>
tenoch titlan</w>
t lal
t fit</w>
synap sids</w>
sy ng
swin burne</w>
super script</w>
super ior
sun dance</w>
su zho
su zanne</w>
su tu
su sa</w>
su pper</w>
su pi
su mit
su kar
su bis
su bar
stru mic
stri des</w>
stri alist
stren uou
strat osph
stra vinsk
stom atal</w>
stoc kad
sti sla
sti lls</w>
sti gmati
step pes</w>
stem ma</w>
stat esmen</w>
st ymi
st reis
st ow</w>
st orts</w>
st ortion
st oria</w>
st ew</w>
st ew
st ernum</w>
st eria</w>
st ast
st anza</w>
st akin
st aat
sprin gfi
spra wlin
sp utu
sp run
sp ouse</w>
sp oon</w>
sp ittin
sp it</w>
sp hin
sou la</w>
sop hron
son ne</w>
sol ubil
smin theus</w>
sit ät</w>
univer sität</w>
sit air
univer sitair
sin ées</w>
sin ian</w>
sin gul
sic kle</w>
si xtu
si tivi
si pun
si od</w>
si ma</w>
si anic</w>
shi kib
sheph erds</w>
sh ortin
sh ockin
sh illin
sh em</w>
sh elled</w>
sh eat
sh anha
ser vom
ser tati
ser mon
ser ines</w>
ser if</w>
ser ie</w>
sen sed</w>
sen atus</w>
sel rin
sel ects</w>
sec ede</w>
sec am</w>
se us</w>
se dition</w>
se ashor
scri bal</w>
scre enings</w>
sco tch</w>
sci pi
school childre
sch uber
sc si</w>
say yid</w>
sar gon</w>
san gam</w>
san derson</w>
sam ādhi</w>
sal vo</w>
sac rosan
sac hs</w>
sab ote
sa xophon
sa wa
sa usag
s ü
s woo
s week</w>
s stow
s stal
s ser
s san
s re
s ra
s nel
s mp
s mal</w>
ti smal</w>
s gat
s fun
s dor
s cis
s cam
s bs</w>
s arac
s 3</w>
s '
ru pts</w>
ru mor</w>
ru kh</w>
ru ined</w>
ru he</w>
ru bia</w>
ron utrients</w>
rober tson</w>
ro ve</w>
ro ve
ro ur
ro tunda</w>
ro sett
ro ofin
ro mes</w>
ro mat
ro intest
ro ika</w>
ro he</w>
ro groove</w>
ro gen
ro bati
ro am
rit ually</w>
rit ualis
ris ked</w>
rin pun
ric ots</w>
ric hter</w>
ric hes</w>
ric her</w>
ric ci</w>
ric ardo</w>
ri jn</w>
ri et</w>
ri enne</w>
ri da
ri be
resp ectin
repu tedly</w>
ren ounce</w>
remo vable</w>
regi onalis
reas ses
re xac
re wor
re vam
re unifi
re ticul
re sin
re ou
vit reou
re ir
re incor
re gga
re generat
re fli
re drawn</w>
re do
re dbridge</w>
re ctivit
re ct
re consider
re classifi
re chri
re bound</w>
re bor
re appe
re aks</w>
st reaks</w>
re .:
rat tler
ran jit</w>
ram say</w>
ram ire
ra wls</w>
ra vel</w>
ra jendra</w>
ra jan</w>
ra hman</w>
ra diator</w>
r tin
r sewor
r pati
ti rpati
r pat
ti rpat
r ned</w>
r mi
r hin</w>
r hei
r da</w>
r cin
r bon
qu ished</w>
relin quished</w>
qu inol
qu id</w>
qu ian</w>
qu erad
qu ei
qu echu
qu ai</w>
q us
q u</w>
q id
q d</w>
q 1</w>
pun tlan
pu tnam</w>
pu table</w>
pu pa
psy chic</w>
propri etor</w>
pronou nce</w>
projec tiles</w>
profes sionally</w>
procu remen
pro wes
pro té
pro terozo
pro sody</w>
pro scri
pro pen
pri zed</w>
presby teries</w>
pre tri
pre sides</w>
pre sag
pre purifi
pre fects</w>
pre fac
pre destinati
pre ces
pr zy
pr incep
por tishea
por ten
pom erium</w>
pom atto
pol yg
pol ybi
pol ior
pol aris
po table</w>
po inter
po ign
pl unger</w>
pl oy</w>
pl icab
pl anta
pl anar</w>
pit alia</w>
pi ercin
pi erce</w>
ph thia</w>
ph ry
ph oid</w>
ty phoid</w>
ph illy</w>
ph ilia</w>
ph 2.
pes hwa</w>
percep tible</w>
per tur
per sin
per seus</w>
per sepol
per mutati
per est
per eir
per dur
per atel
pe tal
pe erag
pe dimen
pe dal</w>
pe aches</w>
pat ti</w>
pat ois</w>
past oralis
pas sivit
pas serines</w>
pas hmin
paradi gms</w>
par tem
par simon
par lou
par ie
par ental
pap erbac
pan tokrat
pan das</w>
pan cy</w>
pal atinat
pag oda</w>
pad dles</w>
pac ify</w>
pac ific
p ú
p wre
shi pwre
p vo</w>
p top
p tom
re ptom
st reptom
p si
p ran
p nes
p iti
p embro
p dr</w>
p ct</w>
p ck</w>
p ci</w>
p ch
p b</w>
ow storms</w>
sn owstorms</w>
over seein
over ridd
ou tfit</w>
ou stics</w>
ou si
ou se
ou rselves</w>
os yl
os wal
os por
organ ophos
orati onis
or ton</w>
or tico
ucoc ortico
or ta</w>
or nmen
or lé
or ks</w>
st orks</w>
or ius</w>
or igen
or ied</w>
or ide</w>
op sis</w>
op ra
op per</w>
op onne
pel oponne
op od</w>
ther opod</w>
op enings</w>
on ymit
on tin
on gzhen</w>
on gh
on ehou
st onehou
on der
on auto
ph onauto
om sk
om onas</w>
ud omonas</w>
pse udomonas</w>
om ium</w>
perist omium</w>
om ew</w>
om en</w>
om edi
om bian</w>
om acho
ol éon</w>
ol ph
ol onisati
ol ives</w>
ol inas</w>
ol eon
off icio</w>
oc ot
oc ko
sh ocko
oc elli</w>
ob structive</w>
ob scu
o ē</w>
o á</w>
o zar
o ya</w>
o vil
ye ovil
o tar
o strat
o or</w>
o om
o ks</w>
o ev
o ei
o dro
o don</w>
o denum</w>
o constric
o confer
o bu
o bacterial</w>
o bac
nul lify</w>
nu tritiou
nor woo
nor fu
nor dha
non confor
no isse
no han
no gen
no ether</w>
no am</w>
nm fs</w>
niger ias
nieder sachsen</w>
nic omedi
ni us</w>
ni ki</w>
ni fi
ni bb
ni bal
ne wso
ne val</w>
ne ust
ne tbul
ne pta
ne ider</w>
sch neider</w>
nav arre</w>
nat ufi
nar rowin
nap pes</w>
nap oléon</w>
nap oleon
nan uman
nan otechn
n ə</w>
n ton</w>
n tac
sy ntac
n sa</w>
n rg</w>
n re
n pi
tur npi
n me</w>
n ld</w>
n j</w>
n houses</w>
tow nhouses</w>
n gou
n di
n bul
tur nbul
n aus
n ature
n asi
n ai</w>
n 1</w>
mus ashi</w>
mur mur
mum bai</w>
mu tt
mu tineer
mu siqu
mp aa</w>
mou stak
mou lted</w>
mos fe
mor tar</w>
mon tser
mon than</w>
mon tal
mon stro
mon omacho
mon olingu
mon ogr
mon mou
mon ean</w>
moder nizin
mo tt</w>
mo ody</w>
mo ods</w>
mo gu
mo gen
mo bbin
mit terran
mit subis
mit ories</w>
mis soula</w>
mis represen
mis kit
mis fortun
mis ce
mis carriag
mis appropri
min glin
min dse
min dan
mil ne</w>
mil etu
mic rogroove</w>
mic roeconom
mi ʻah</w>
mi stresses</w>
mi stoo
mi rebe
mi key</w>
mi dle
mi anyan
mes sianic</w>
mes olithic</w>
mer nepta
mer cer</w>
men us</w>
men tar
men do
me trorai
me ticul
me tan
me iningen</w>
me dalis
mati sse</w>
mat tress</w>
mat eria</w>
mas sawa</w>
mas samba</w>
mas querad
mar xian</w>
mar war</w>
mar tius</w>
mar supi
mar kings</w>
[...]
